#if __STDC_VERSION__ >= 201112L
  #define ALIGN4 _Alignas(4)
#else
  #define ALIGN4 __attribute__((aligned(4)))
#endif

ALIGN4
const unsigned char src_puffer_drone_swarm_weights_bin[] = {
  0xbb, 0x79, 0x87, 0xbf, 0x8a, 0xf8, 0x97, 0xbf, 0x7d, 0xff, 0x60, 0xbf,
  0x3b, 0xf2, 0xa1, 0xbf, 0x94, 0xd0, 0xb6, 0x3f, 0x60, 0x71, 0x1b, 0x40,
  0x6f, 0x1c, 0xbe, 0xbf, 0x10, 0x8d, 0x32, 0x41, 0x0a, 0x7f, 0x1e, 0xc0,
  0xe1, 0x31, 0x58, 0xbf, 0x9c, 0xb1, 0x57, 0xc0, 0xe9, 0xf0, 0xaa, 0x3f,
  0x2d, 0x37, 0xaf, 0x3f, 0xb2, 0x13, 0x00, 0x3f, 0x9e, 0x17, 0x62, 0x3f,
  0xed, 0x8b, 0x44, 0x40, 0xb5, 0xf4, 0x91, 0xbe, 0xf4, 0x9c, 0xf4, 0xbf,
  0x1f, 0x18, 0xd9, 0x3f, 0xf9, 0x3c, 0x2a, 0xbe, 0xad, 0xca, 0x76, 0x3f,
  0xba, 0x4c, 0x6d, 0xbf, 0x5e, 0x23, 0x8e, 0xbb, 0x3c, 0x4c, 0x76, 0xbf,
  0xae, 0x94, 0x27, 0x3d, 0x36, 0xa0, 0x64, 0xbe, 0xca, 0xb5, 0xe1, 0xbd,
  0xc2, 0x0e, 0x9b, 0x3d, 0x58, 0xb0, 0x50, 0x3c, 0x3e, 0xf2, 0x53, 0xbd,
  0x28, 0xcf, 0xbd, 0x41, 0x78, 0x4a, 0xbd, 0xc0, 0x48, 0xcb, 0x6c, 0xbf,
  0x3b, 0xe4, 0xc9, 0xbe, 0xd3, 0xcb, 0x36, 0x40, 0xb3, 0x48, 0x04, 0xbe,
  0x85, 0x43, 0xb7, 0x3e, 0x7f, 0x7f, 0xcd, 0x40, 0x08, 0x8b, 0x99, 0x3d,
  0x30, 0x02, 0x34, 0xbd, 0x41, 0x24, 0x97, 0x3e, 0x84, 0x8f, 0x2c, 0x3f,
  0xfe, 0x3a, 0xc6, 0xbe, 0xde, 0x8a, 0x86, 0x3f, 0x33, 0xcb, 0x08, 0xbe,
  0x83, 0xa2, 0x9d, 0x3e, 0xa0, 0x26, 0x5d, 0xbf, 0x82, 0xef, 0x93, 0x3f,
  0xf9, 0xc4, 0x38, 0x3f, 0xff, 0x09, 0xa0, 0xbe, 0x9f, 0x6a, 0x8b, 0x3d,
  0x91, 0xe1, 0x6b, 0x3e, 0x47, 0x80, 0x74, 0xbc, 0xa1, 0xec, 0xa6, 0xbb,
  0x5a, 0xd9, 0xcb, 0x3c, 0x0c, 0xba, 0x94, 0xbd, 0x35, 0x3a, 0x34, 0x40,
  0x72, 0xb6, 0xbb, 0xbf, 0x72, 0xa0, 0x62, 0xbf, 0x8d, 0xb1, 0x67, 0x3c,
  0xe7, 0x82, 0xf0, 0x3e, 0x36, 0xd3, 0x85, 0xbe, 0xd4, 0x22, 0x31, 0xbf,
  0x47, 0x90, 0xdf, 0xbd, 0x38, 0xbf, 0x06, 0x3f, 0xc7, 0x3d, 0xd9, 0xbe,
  0x11, 0x7e, 0x1b, 0xbf, 0x6d, 0x2d, 0x2c, 0x3f, 0x69, 0x34, 0xd8, 0x3e,
  0xe1, 0xd6, 0x19, 0xbe, 0xe3, 0x7b, 0x86, 0xbe, 0xb4, 0xc3, 0x3d, 0xbe,
  0x79, 0x57, 0x8b, 0xbe, 0xf3, 0xf6, 0x1c, 0x3e, 0xf3, 0x3e, 0xcd, 0x3d,
  0x8f, 0xa9, 0x34, 0xbc, 0x60, 0xc8, 0x0f, 0xbd, 0xa0, 0xdc, 0x1d, 0x3d,
  0x63, 0x02, 0x97, 0x3e, 0xf2, 0x7b, 0x81, 0xbd, 0xdc, 0xba, 0x42, 0x3d,
  0x13, 0x5a, 0x2a, 0x3e, 0x05, 0x01, 0x5a, 0x3f, 0xbd, 0x91, 0x8f, 0x3e,
  0x4a, 0x2f, 0x94, 0xbf, 0xab, 0x28, 0xe9, 0x3d, 0xc5, 0x1c, 0xf4, 0xbe,
  0xad, 0xb8, 0x70, 0x3f, 0xe4, 0x7c, 0x58, 0xbf, 0xec, 0x1b, 0x33, 0x3f,
  0x19, 0x38, 0x97, 0xbe, 0xe5, 0x11, 0x90, 0x3e, 0xe3, 0xe5, 0x3c, 0xbf,
  0x0d, 0x89, 0xd9, 0x3e, 0x50, 0x07, 0xc1, 0xbe, 0xc0, 0xa5, 0xe5, 0x3e,
  0x7d, 0x5a, 0x00, 0x3d, 0x24, 0xba, 0x56, 0x3d, 0xee, 0x1f, 0x40, 0xbf,
  0x0d, 0x06, 0xce, 0x3d, 0x15, 0x12, 0x63, 0xbc, 0x46, 0x3a, 0x22, 0x3e,
  0xe7, 0xd2, 0x3b, 0x3e, 0xba, 0x49, 0x08, 0x3c, 0x01, 0x5e, 0x85, 0xbb,
  0xab, 0xaa, 0xb0, 0xbe, 0xf7, 0x6a, 0x00, 0x3f, 0x8c, 0xcf, 0xba, 0x3f,
  0xd7, 0x98, 0x56, 0xbf, 0x97, 0x65, 0x04, 0x40, 0x85, 0x04, 0x27, 0x3e,
  0x48, 0x18, 0xbf, 0xbf, 0x65, 0xe0, 0x54, 0xbe, 0xce, 0x7b, 0x12, 0x3d,
  0x90, 0x42, 0xe3, 0xbe, 0xfd, 0x71, 0x72, 0xbf, 0x8c, 0x47, 0xfa, 0x3e,
  0x75, 0x6c, 0xa0, 0x3f, 0x24, 0x1e, 0x15, 0xbe, 0x8c, 0x07, 0x76, 0x3e,
  0x17, 0xe5, 0xab, 0xbe, 0xa2, 0x71, 0xea, 0x3e, 0xd7, 0x25, 0xf8, 0xbd,
  0xc5, 0x2b, 0x2e, 0x3e, 0x7f, 0x1c, 0xa9, 0xbf, 0xd8, 0x90, 0xf7, 0x3d,
  0x01, 0x9c, 0xac, 0xbf, 0xab, 0x81, 0xbf, 0x3f, 0xcb, 0xf2, 0xa9, 0x3c,
  0x4e, 0xa6, 0xd8, 0xbd, 0x22, 0xec, 0x17, 0x3d, 0x76, 0x4d, 0xd7, 0x3a,
  0x38, 0x3a, 0x80, 0x3d, 0xbf, 0x89, 0x19, 0x3d, 0xa0, 0xf7, 0x7b, 0xbf,
  0x25, 0xee, 0x33, 0xbf, 0xca, 0xb6, 0xf5, 0x3f, 0xba, 0xe3, 0xd7, 0x3d,
  0x9a, 0xc4, 0xaa, 0xbf, 0x32, 0xb0, 0x6e, 0x3e, 0x02, 0x6a, 0xa7, 0xbe,
  0x6e, 0x12, 0xa1, 0xbe, 0xf9, 0x59, 0x19, 0xbf, 0x94, 0x64, 0xa5, 0x3e,
  0x62, 0xcd, 0x44, 0x3f, 0x5b, 0xa3, 0x1e, 0xbe, 0x54, 0xb1, 0xe3, 0x3e,
  0x56, 0x6d, 0xe8, 0xbd, 0x55, 0x88, 0x28, 0xbf, 0x66, 0x34, 0x07, 0xbe,
  0x4f, 0x01, 0x09, 0xbf, 0x48, 0xf5, 0xd8, 0x3e, 0xd7, 0xee, 0x8b, 0xbe,
  0xec, 0xff, 0xe9, 0xbd, 0xb6, 0x56, 0x81, 0xbe, 0xef, 0x61, 0x01, 0x3e,
  0x02, 0xaf, 0xc9, 0x3d, 0xe4, 0x5b, 0x27, 0xbe, 0xa6, 0xa7, 0x8f, 0x3e,
  0x8f, 0x69, 0x97, 0xbe, 0xd5, 0xcc, 0x9d, 0x3d, 0x6a, 0x01, 0xb0, 0xbe,
  0x92, 0xb4, 0xf5, 0xbf, 0xcc, 0x4f, 0x26, 0xbe, 0x7f, 0xc2, 0xb5, 0xbd,
  0xa7, 0x1a, 0x41, 0x3f, 0x20, 0x2f, 0x88, 0xbf, 0xb9, 0x9c, 0xb5, 0x3e,
  0xad, 0xa0, 0x63, 0x3d, 0xba, 0x73, 0x9b, 0x3f, 0x2e, 0x6c, 0xf6, 0xbe,
  0xd7, 0x09, 0x99, 0x3e, 0xae, 0x36, 0xbe, 0xbe, 0x03, 0x14, 0x6b, 0x3e,
  0x88, 0xfe, 0xcf, 0xbd, 0x5e, 0xfc, 0x91, 0x3c, 0x1f, 0xe9, 0x77, 0xbe,
  0x86, 0xfd, 0x22, 0x3e, 0xc2, 0xef, 0x6a, 0x3c, 0xc7, 0xb0, 0x66, 0x3e,
  0x63, 0x68, 0xe0, 0x3d, 0x53, 0x29, 0x83, 0xbc, 0xc2, 0x2b, 0x47, 0xbe,
  0x9a, 0x0a, 0x8f, 0x3f, 0x66, 0x62, 0x91, 0xbf, 0x45, 0x5c, 0x6b, 0xbf,
  0x53, 0x2e, 0xf8, 0x3f, 0xb0, 0x9c, 0xd6, 0x40, 0xdb, 0x12, 0x15, 0x40,
  0xa8, 0x5e, 0x72, 0xc0, 0xee, 0xf2, 0x96, 0x40, 0x43, 0x69, 0xf8, 0xbe,
  0x41, 0xac, 0x2f, 0xc0, 0x5e, 0x9a, 0xa5, 0xbf, 0x6e, 0x6b, 0x4b, 0x40,
  0xfb, 0x23, 0xb8, 0x3e, 0x5b, 0x59, 0x54, 0xbe, 0xe8, 0xd7, 0x04, 0xbe,
  0x3b, 0x05, 0x3c, 0x40, 0xa7, 0xfe, 0x80, 0x3f, 0xd6, 0x24, 0x0c, 0xbf,
  0x6c, 0x14, 0xb6, 0x3e, 0x33, 0x35, 0xa4, 0x3f, 0x18, 0x3c, 0x0e, 0x3c,
  0x2d, 0x2b, 0xe5, 0xbd, 0x00, 0xdd, 0xfb, 0xbe, 0x33, 0xa5, 0x8d, 0xbc,
  0x83, 0xed, 0xb6, 0xbd, 0xad, 0x10, 0x03, 0xbe, 0x3d, 0x3f, 0x88, 0x3c,
  0x02, 0xe7, 0xee, 0x3b, 0x5b, 0x96, 0x59, 0xbd, 0xff, 0xcc, 0xd0, 0x3e,
  0x4e, 0x3c, 0x0c, 0x40, 0xb6, 0x67, 0x51, 0x40, 0xb8, 0xec, 0x1b, 0xc0,
  0x2a, 0x5d, 0x6e, 0x3f, 0x2f, 0x7a, 0xc0, 0xbd, 0xf6, 0x15, 0xcb, 0xbd,
  0xab, 0x2d, 0x0e, 0x3f, 0x0f, 0x05, 0xf8, 0xbd, 0x38, 0xe1, 0x85, 0x3f,
  0xd9, 0x91, 0xf1, 0xbc, 0x9c, 0x9e, 0x9c, 0xbe, 0x23, 0x77, 0x6b, 0xbe,
  0x5d, 0x5a, 0x09, 0x3f, 0x74, 0x15, 0x67, 0xbe, 0x4d, 0x18, 0xae, 0x3e,
  0x8d, 0x95, 0x97, 0x3e, 0x54, 0xac, 0x4d, 0xbe, 0xbb, 0x24, 0x4f, 0xbe,
  0x2b, 0x91, 0x16, 0xbe, 0xbd, 0x1a, 0xe8, 0xbb, 0x8a, 0xc0, 0x37, 0xbd,
  0x5b, 0xfb, 0x19, 0xbe, 0x65, 0x21, 0x85, 0x3f, 0x01, 0xa0, 0xcf, 0x3d,
  0x38, 0xf4, 0xb5, 0xbd, 0x95, 0x8e, 0x24, 0xbf, 0xa1, 0x6b, 0x6c, 0x3f,
  0x15, 0x92, 0x6f, 0x40, 0xf5, 0x31, 0x1a, 0x40, 0xfc, 0x74, 0xaf, 0xbf,
  0x14, 0xdf, 0xd2, 0xbe, 0xa6, 0x33, 0x1d, 0xbf, 0x3a, 0xe5, 0xf3, 0x3e,
  0xd1, 0x9a, 0xea, 0xba, 0xe7, 0x36, 0x28, 0x3f, 0xd5, 0xa8, 0xbb, 0x3e,
  0x5f, 0xed, 0x34, 0x3e, 0x4b, 0x3f, 0xff, 0xbd, 0x3d, 0xe6, 0x28, 0x3f,
  0x02, 0xf0, 0x0a, 0xbf, 0xa9, 0xfa, 0x06, 0xbd, 0x34, 0x7f, 0x1f, 0xc0,
  0x80, 0x1d, 0x5d, 0x3d, 0xef, 0x69, 0x14, 0x3c, 0x03, 0xcd, 0x11, 0x3e,
  0x58, 0x25, 0xa8, 0x3d, 0x06, 0x11, 0x1f, 0xbe, 0x75, 0xd5, 0x33, 0x3e,
  0x67, 0xdc, 0xed, 0xbd, 0x69, 0x05, 0xa4, 0x3d, 0x37, 0xb9, 0xe9, 0xbe,
  0x87, 0xbb, 0x83, 0x3f, 0x5d, 0x84, 0x64, 0x40, 0x21, 0x17, 0xa1, 0x40,
  0x6d, 0x9f, 0xc1, 0x40, 0x88, 0xb8, 0x08, 0xbf, 0x7a, 0xfb, 0xa2, 0xbe,
  0xe9, 0x82, 0x86, 0xbf, 0x2d, 0xa3, 0x90, 0x40, 0x52, 0x8f, 0x07, 0x40,
  0x8d, 0x7c, 0xb3, 0xbe, 0x90, 0xba, 0xce, 0xbf, 0xc0, 0x3e, 0x93, 0xbe,
  0xc2, 0xc0, 0x59, 0xbf, 0xa3, 0x85, 0x88, 0xbf, 0x1b, 0x16, 0xa4, 0xbd,
  0x0e, 0xa9, 0x50, 0xbe, 0x76, 0xdb, 0x91, 0xbd, 0x55, 0x8a, 0xec, 0xbf,
  0xd0, 0xdd, 0x9b, 0x3f, 0x7b, 0x5f, 0xda, 0xbf, 0xad, 0x4a, 0x7d, 0x3d,
  0x65, 0x6b, 0xfc, 0xbd, 0x35, 0xab, 0x2d, 0xbd, 0xc9, 0x7b, 0xc9, 0x3d,
  0x8f, 0xfe, 0x03, 0x3d, 0xde, 0x05, 0x6e, 0x3d, 0xf0, 0xea, 0x3e, 0xc1,
  0x00, 0x82, 0x69, 0xc0, 0x8d, 0x9d, 0x03, 0xc1, 0x9b, 0x21, 0x00, 0xbf,
  0x38, 0xbf, 0x19, 0xc0, 0x99, 0x43, 0x9a, 0x3d, 0x99, 0xbe, 0xef, 0xbf,
  0x03, 0xa1, 0x37, 0x40, 0xd7, 0xc5, 0x15, 0x3e, 0x04, 0x91, 0xd2, 0xbf,
  0x48, 0xd5, 0x5b, 0x3f, 0x38, 0xc3, 0xa2, 0xbe, 0xad, 0xdb, 0x39, 0xbf,
  0xdd, 0xf2, 0x85, 0xbd, 0xb6, 0x83, 0x21, 0x3f, 0x52, 0xe1, 0xed, 0x3f,
  0xce, 0x71, 0xdd, 0xbf, 0x5d, 0x9b, 0xd2, 0x3e, 0xbc, 0x08, 0xa8, 0xbe,
  0x78, 0x21, 0x38, 0xbe, 0xd7, 0x4b, 0xbf, 0xbd, 0x05, 0x99, 0x66, 0x3c,
  0x5f, 0xed, 0x35, 0xbd, 0x79, 0x3e, 0x19, 0x3d, 0xf0, 0x2c, 0x52, 0x3c,
  0xbd, 0x51, 0xd6, 0x3d, 0xa6, 0xc3, 0xb0, 0x3f, 0x94, 0xfa, 0xe2, 0x40,
  0xc2, 0x1e, 0x28, 0x3f, 0x85, 0x83, 0x27, 0x40, 0xf7, 0x14, 0x5a, 0x3f,
  0x61, 0x08, 0x03, 0xbe, 0x1c, 0x83, 0x62, 0xbf, 0xe2, 0xad, 0x2c, 0x3e,
  0x65, 0xbd, 0x95, 0xbf, 0x1e, 0x2d, 0x74, 0xbf, 0xe5, 0x96, 0x9a, 0xbe,
  0x6f, 0x80, 0x4b, 0xbf, 0xf0, 0x15, 0x82, 0x3c, 0x99, 0x10, 0x35, 0x3f,
  0x81, 0x1f, 0x1b, 0xbd, 0x12, 0x1d, 0x0d, 0x3f, 0xc9, 0xcd, 0x9f, 0xbf,
  0xad, 0x47, 0xf2, 0x3e, 0x12, 0x6c, 0x24, 0xbe, 0xf3, 0x7d, 0x21, 0xbf,
  0x4b, 0x4a, 0x07, 0x3e, 0xfd, 0x21, 0x8d, 0x3d, 0xe1, 0x18, 0xe4, 0xbd,
  0xca, 0xad, 0xbf, 0x3c, 0xed, 0x59, 0x16, 0xbd, 0xd1, 0xb6, 0x14, 0xbd,
  0xd7, 0xa7, 0x8b, 0xbc, 0xe6, 0xcd, 0xe9, 0x3e, 0xab, 0xca, 0xfa, 0x3e,
  0x36, 0x74, 0x07, 0xc0, 0xad, 0x12, 0x54, 0xbf, 0x16, 0x0c, 0x4d, 0x3e,
  0x2b, 0xb5, 0x31, 0xbf, 0x8d, 0x85, 0x57, 0x3f, 0x05, 0xfa, 0xe4, 0xbe,
  0x90, 0xe1, 0x24, 0xbf, 0x5e, 0x4b, 0xe4, 0xbe, 0xd3, 0xc5, 0x88, 0xbe,
  0xd1, 0x75, 0x03, 0xbf, 0x5b, 0x8b, 0x89, 0xbe, 0xf4, 0x6d, 0x39, 0xbe,
  0x73, 0x43, 0xed, 0x3f, 0x51, 0xcb, 0xd3, 0xbf, 0x96, 0x04, 0xab, 0x3e,
  0xc5, 0x08, 0x0a, 0x3f, 0xed, 0x78, 0x1a, 0x3f, 0x40, 0x27, 0x4d, 0x3d,
  0x74, 0x70, 0xbe, 0xbe, 0x20, 0x27, 0x3b, 0xba, 0xf2, 0x53, 0x90, 0xbd,
  0x4c, 0x21, 0x29, 0xbd, 0xdf, 0xef, 0xc7, 0xbd, 0x87, 0xa3, 0x91, 0x3c,
  0xaf, 0x9f, 0x71, 0xbf, 0x20, 0x8a, 0xe7, 0xbf, 0x2e, 0xe1, 0x4f, 0x3e,
  0x9c, 0xa6, 0x4f, 0xbf, 0xa8, 0x74, 0xe9, 0xbe, 0xd3, 0x3f, 0x59, 0xbf,
  0xca, 0x72, 0x0a, 0xbe, 0x6c, 0x8e, 0xec, 0xbe, 0x0c, 0x54, 0x7c, 0x3f,
  0xab, 0x68, 0x83, 0xbf, 0xef, 0xdc, 0xe6, 0xbf, 0x7b, 0xe4, 0xb7, 0xbf,
  0xc5, 0x04, 0xed, 0xbf, 0x92, 0x64, 0xc4, 0x3d, 0x10, 0x2b, 0x7d, 0xbe,
  0xc6, 0x04, 0xdd, 0x3b, 0x34, 0xba, 0x3a, 0xbe, 0x85, 0xd4, 0x29, 0x3d,
  0x09, 0xc3, 0x0b, 0xbf, 0xd2, 0x82, 0xe1, 0xbc, 0x93, 0xd8, 0x95, 0x3d,
  0xf4, 0x28, 0x1a, 0xbe, 0x0b, 0x1d, 0x22, 0xbc, 0x8c, 0x15, 0x50, 0xbd,
  0x6f, 0x1b, 0x80, 0xbc, 0xf4, 0xd0, 0x99, 0x3e, 0xf0, 0x62, 0x31, 0xbf,
  0x40, 0x78, 0x01, 0xc0, 0x8e, 0x2f, 0xee, 0xbd, 0x73, 0xc5, 0x20, 0xbd,
  0x4d, 0x19, 0xdc, 0x3f, 0x89, 0xe5, 0x8d, 0xbf, 0xfa, 0xc6, 0xaa, 0x3e,
  0xa8, 0x95, 0x23, 0xbe, 0x10, 0x8a, 0xb1, 0x3f, 0xa7, 0x2f, 0x10, 0xbf,
  0x2e, 0xda, 0xc3, 0x3e, 0x9c, 0x86, 0xd1, 0xbe, 0x7e, 0x03, 0x80, 0x3e,
  0x46, 0xbe, 0x25, 0xbe, 0x10, 0x0c, 0x92, 0xbd, 0x68, 0x77, 0x03, 0xbe,
  0x08, 0xed, 0x4b, 0x3e, 0xa0, 0x73, 0x1d, 0x3d, 0x9e, 0x72, 0x10, 0x3e,
  0x05, 0x55, 0x8c, 0x3e, 0x4b, 0xcd, 0x36, 0x3e, 0x49, 0x0a, 0x17, 0xbd,
  0x1a, 0x77, 0xc2, 0x3f, 0xd0, 0x1b, 0xb1, 0x3f, 0xbc, 0xea, 0x60, 0xbe,
  0x94, 0x74, 0xad, 0xc0, 0xe7, 0x65, 0x89, 0x40, 0xb2, 0x58, 0x86, 0x40,
  0xaa, 0xb2, 0xca, 0x3f, 0x1e, 0x53, 0xea, 0x3e, 0xab, 0x04, 0x2c, 0xbe,
  0xb4, 0x9d, 0x62, 0xbf, 0x2e, 0x6a, 0xb1, 0x3d, 0xab, 0x63, 0x97, 0xbf,
  0x49, 0xb5, 0xf4, 0x3e, 0xd7, 0x77, 0x8e, 0x3d, 0x8d, 0xdd, 0x9e, 0xbe,
  0x63, 0x32, 0xbb, 0xbd, 0x9d, 0xd5, 0x6a, 0xbf, 0xa9, 0xe3, 0xcb, 0x3f,
  0x2e, 0x8f, 0x29, 0xbf, 0x4f, 0x3b, 0x65, 0xbe, 0x68, 0xb2, 0x85, 0xc0,
  0xee, 0x82, 0x8a, 0x3f, 0xac, 0xcf, 0xbf, 0xbf, 0x59, 0x2f, 0x2d, 0x3e,
  0x3f, 0x45, 0xd0, 0x39, 0x69, 0xc9, 0x20, 0x3e, 0x73, 0xe5, 0xdd, 0x3b,
  0xb2, 0x18, 0xe6, 0x3c, 0x5e, 0xa2, 0xef, 0xbc, 0x0f, 0xd6, 0x7d, 0xbf,
  0xcd, 0xb0, 0x6b, 0xbd, 0x3f, 0x90, 0xdb, 0x3e, 0x64, 0xe2, 0x05, 0xbf,
  0xff, 0x79, 0x53, 0xbf, 0x16, 0x24, 0x89, 0xbf, 0xde, 0xf7, 0xa2, 0x3e,
  0xa4, 0xc9, 0x86, 0x3f, 0xb0, 0x31, 0x4a, 0xbf, 0xd5, 0x8f, 0xf2, 0xbe,
  0x84, 0xae, 0xd1, 0xbe, 0x82, 0xf8, 0x8a, 0xbe, 0x9e, 0xc8, 0xcb, 0x3d,
  0x9f, 0x86, 0x3d, 0x3d, 0x9e, 0xe3, 0x0f, 0x40, 0xf6, 0xc3, 0xe8, 0xbd,
  0xd0, 0xf1, 0x72, 0x3e, 0x41, 0x7c, 0x58, 0xc0, 0x05, 0xed, 0x0e, 0x40,
  0x3f, 0x04, 0x52, 0xc0, 0xd5, 0xec, 0x1b, 0x3e, 0x4b, 0x16, 0xfe, 0xbd,
  0x88, 0x13, 0xf9, 0x3c, 0x6c, 0xce, 0x29, 0x3d, 0x07, 0xbd, 0x9d, 0x3b,
  0x96, 0xb9, 0xb0, 0x3c, 0xc5, 0xd5, 0xec, 0x3f, 0xaa, 0x75, 0x3b, 0x40,
  0xc1, 0xd8, 0x42, 0x40, 0x4c, 0xe2, 0x2b, 0x3c, 0xe4, 0xc2, 0xb5, 0x3e,
  0x58, 0x05, 0x5e, 0x3e, 0xb2, 0x1a, 0x00, 0xbf, 0x48, 0x4d, 0xb3, 0xbe,
  0x48, 0x24, 0x21, 0xbe, 0x70, 0x37, 0x4f, 0xbe, 0x89, 0xcc, 0xb9, 0xbe,
  0xbe, 0x73, 0x53, 0xbe, 0x4e, 0x42, 0xc0, 0xbd, 0x41, 0xc3, 0x0c, 0x3f,
  0xbd, 0x1b, 0x17, 0xbd, 0x5b, 0xe2, 0x13, 0x3e, 0x9a, 0x1c, 0xe6, 0xbd,
  0xca, 0xd4, 0x02, 0x3e, 0x30, 0xb5, 0xab, 0x3d, 0x79, 0x94, 0xe5, 0xbe,
  0xbc, 0x7d, 0x9b, 0x3d, 0x12, 0xdc, 0x14, 0x3e, 0x1c, 0x1a, 0x95, 0xbc,
  0xd4, 0xbf, 0x54, 0xbd, 0xc1, 0xec, 0x8e, 0xbc, 0xa2, 0x37, 0xf5, 0x3c,
  0x49, 0x3a, 0x40, 0x3f, 0x50, 0xdb, 0xb9, 0xbf, 0x15, 0xcc, 0xda, 0x3f,
  0x13, 0x88, 0x90, 0x3f, 0x36, 0xa2, 0xd1, 0xbe, 0x99, 0x40, 0x8c, 0x3d,
  0x3e, 0x3a, 0x9e, 0xbd, 0x9f, 0x82, 0xc3, 0x3e, 0xa6, 0xa8, 0x01, 0xbf,
  0xf4, 0x54, 0x44, 0x3f, 0xaf, 0xc5, 0xe3, 0x3e, 0x4d, 0x0b, 0x1b, 0xbf,
  0x80, 0x87, 0x81, 0x3f, 0xc9, 0x11, 0x95, 0xbe, 0x08, 0x96, 0x61, 0xbe,
  0xd5, 0x5e, 0xa7, 0x3d, 0x3a, 0xc6, 0x62, 0x3e, 0xa0, 0xbb, 0x22, 0xbe,
  0x99, 0x24, 0x93, 0xbd, 0xba, 0xd7, 0x1e, 0xbe, 0x71, 0xc9, 0xca, 0xbc,
  0x7e, 0xe4, 0xf8, 0x3d, 0xd2, 0x72, 0x10, 0xbd, 0x16, 0x99, 0x59, 0xbf,
  0x90, 0x6a, 0x87, 0xbe, 0xe1, 0x9d, 0x0d, 0x3f, 0x0e, 0x77, 0x53, 0x3f,
  0x5b, 0xf4, 0x93, 0x3f, 0x17, 0xad, 0x10, 0x40, 0x64, 0x7b, 0xf3, 0x3e,
  0x24, 0x0c, 0x5e, 0xbe, 0xa0, 0xdb, 0xb2, 0x3d, 0xf2, 0x71, 0x10, 0xbf,
  0x9c, 0x27, 0x04, 0x3f, 0x95, 0x67, 0x21, 0x3d, 0xe7, 0x81, 0xba, 0x3f,
  0xec, 0xac, 0x64, 0xba, 0x84, 0xb5, 0x9c, 0x3e, 0xdb, 0x59, 0x38, 0x3e,
  0xbe, 0xa2, 0xe0, 0x3d, 0x28, 0x6b, 0x98, 0x3d, 0xc4, 0x0b, 0xc1, 0x3f,
  0x9f, 0x12, 0x04, 0xc0, 0xfc, 0x4a, 0x83, 0xbf, 0x19, 0xd6, 0x2e, 0xbf,
  0xb9, 0xc7, 0x9d, 0xbe, 0x9f, 0x49, 0xdf, 0x3a, 0x62, 0x13, 0x0b, 0xbe,
  0xe8, 0x1d, 0x7f, 0xbd, 0x91, 0x77, 0x21, 0x3f, 0x07, 0x73, 0x3c, 0x3f,
  0xe3, 0x2e, 0xe5, 0xbe, 0xa2, 0xed, 0xba, 0xbf, 0xf1, 0x73, 0xb3, 0x40,
  0xb7, 0x4d, 0x54, 0x40, 0x9a, 0xf4, 0x71, 0xbe, 0x4f, 0x22, 0xdb, 0xbf,
  0xaa, 0x77, 0x16, 0xbe, 0x84, 0xab, 0xf0, 0x3e, 0x5f, 0xc0, 0xbb, 0xbf,
  0x2c, 0xad, 0x06, 0xc0, 0x7e, 0xab, 0x06, 0x3f, 0x1c, 0xd1, 0x27, 0xbe,
  0x84, 0x14, 0xa4, 0x3e, 0xa4, 0x51, 0x77, 0xbe, 0xbc, 0x5d, 0x26, 0x3f,
  0xb2, 0x97, 0xc8, 0xbe, 0x2b, 0x66, 0xa4, 0x3e, 0xe5, 0x54, 0xec, 0xbf,
  0xaa, 0x5e, 0xfb, 0x3e, 0xd6, 0xfc, 0xf9, 0xbf, 0xbb, 0x5d, 0x05, 0xbf,
  0x88, 0xb2, 0x9c, 0xbc, 0xf2, 0xc7, 0x9a, 0x3d, 0xc4, 0xbb, 0x54, 0xbc,
  0x70, 0xc2, 0x78, 0xbd, 0x62, 0xe8, 0x56, 0x3d, 0x62, 0x73, 0x62, 0x3e,
  0x2d, 0xeb, 0xa7, 0xbe, 0x06, 0x75, 0xfb, 0x3d, 0x1f, 0xee, 0x32, 0x3f,
  0x4c, 0x18, 0x24, 0xbf, 0xbb, 0xf0, 0x63, 0xbe, 0x92, 0x05, 0x0c, 0xbd,
  0xb4, 0x02, 0x01, 0xbe, 0x17, 0xb8, 0x44, 0xbe, 0xab, 0x5e, 0x0b, 0x3f,
  0x55, 0xbf, 0xf6, 0x3e, 0x58, 0x0b, 0xa6, 0xbf, 0x5c, 0xf9, 0x25, 0xbe,
  0x89, 0x7f, 0x94, 0xbe, 0x14, 0xb6, 0x84, 0x3f, 0xa0, 0x40, 0x0d, 0x3e,
  0x59, 0xd7, 0xfd, 0xbd, 0x51, 0x40, 0x82, 0xbe, 0xd1, 0x85, 0xf3, 0xbe,
  0xfe, 0x6b, 0x13, 0x3f, 0xa6, 0xb0, 0xc6, 0xbe, 0xa1, 0xcd, 0x7f, 0x3d,
  0x56, 0xcd, 0x83, 0xbd, 0x11, 0x66, 0xd1, 0xbc, 0x7a, 0xef, 0x34, 0xbe,
  0x10, 0x11, 0x3e, 0x3e, 0x57, 0x21, 0x32, 0x3c, 0x7b, 0x51, 0x1c, 0xc1,
  0x32, 0x9b, 0x03, 0x41, 0x4d, 0xc2, 0x39, 0xbf, 0x1d, 0xf2, 0x56, 0xc0,
  0x40, 0xb8, 0xdb, 0x3d, 0xcb, 0xff, 0x7c, 0xbe, 0x96, 0x00, 0x1c, 0xc0,
  0x9e, 0x45, 0x5e, 0xc0, 0x5a, 0x30, 0xc4, 0xbf, 0xc1, 0x30, 0x6c, 0xbe,
  0x09, 0xbd, 0x70, 0x3f, 0xab, 0xa5, 0xe8, 0x3e, 0x07, 0x92, 0xf8, 0xbe,
  0x69, 0xd8, 0x02, 0x40, 0x75, 0xb6, 0x8c, 0x3e, 0x55, 0x33, 0x05, 0xbe,
  0x5a, 0x80, 0x11, 0x3f, 0x63, 0xca, 0xf0, 0x3e, 0x58, 0x5c, 0x81, 0xbe,
  0x1e, 0xc2, 0x2d, 0xbf, 0xad, 0x27, 0xd3, 0xba, 0x77, 0xb4, 0x2b, 0xbe,
  0xe6, 0x75, 0x7f, 0x3d, 0x36, 0xd5, 0x26, 0x3c, 0x7c, 0x3b, 0x9b, 0x3c,
  0x4f, 0xae, 0x8a, 0x3d, 0xbf, 0x35, 0x84, 0x3f, 0x61, 0xd4, 0x95, 0xc0,
  0x88, 0x2d, 0xb6, 0xbf, 0x90, 0x57, 0x86, 0x3f, 0x1e, 0xb4, 0x4b, 0xbf,
  0x10, 0x4f, 0x02, 0xbc, 0x1f, 0x13, 0x8a, 0xbf, 0xf4, 0xe5, 0xf2, 0x3e,
  0xaa, 0x46, 0xca, 0xbf, 0x46, 0x9d, 0x41, 0xbf, 0xa7, 0xd0, 0xb0, 0x3c,
  0xbb, 0x1c, 0xad, 0x3f, 0x77, 0xfa, 0xa9, 0xbc, 0x8a, 0xe2, 0xd5, 0xbf,
  0x2d, 0x5f, 0x1d, 0x3f, 0x0f, 0x45, 0x38, 0x3f, 0xa5, 0x29, 0xa7, 0x3e,
  0x54, 0x32, 0xda, 0x3e, 0xf0, 0x16, 0x91, 0x3d, 0x86, 0xb1, 0x5b, 0x3f,
  0xee, 0xda, 0x81, 0x3e, 0xbc, 0xc4, 0x0a, 0x3a, 0x2c, 0x1c, 0xf2, 0x3d,
  0x93, 0xeb, 0x55, 0xbd, 0x76, 0x89, 0xf6, 0x3c, 0xe7, 0xcf, 0x19, 0x3e,
  0x5b, 0x0a, 0x25, 0x3e, 0xb2, 0x1f, 0x43, 0x40, 0xaf, 0x81, 0x60, 0x40,
  0x3c, 0x9d, 0x15, 0xbf, 0xb6, 0xd3, 0x38, 0x40, 0xd2, 0x32, 0xac, 0xbe,
  0x8d, 0xff, 0xd3, 0xbe, 0x83, 0x8f, 0x3f, 0xbf, 0x9d, 0xff, 0xce, 0x3e,
  0x70, 0x93, 0x2c, 0x3f, 0x05, 0xf2, 0xb4, 0xbf, 0x19, 0x74, 0xfc, 0x3e,
  0xb8, 0x56, 0x1f, 0xbf, 0xdf, 0xd1, 0x7d, 0x3f, 0x7c, 0x56, 0x8b, 0xbf,
  0x27, 0x30, 0x1a, 0xbe, 0xd9, 0x49, 0x07, 0xbe, 0xa6, 0x05, 0x39, 0xbe,
  0x76, 0x16, 0x99, 0x3e, 0x70, 0x5d, 0xe4, 0xbe, 0xbf, 0xa2, 0xac, 0x3d,
  0x0d, 0x5a, 0x39, 0xbe, 0x95, 0x80, 0x5f, 0x3d, 0x5b, 0x93, 0x7d, 0x3e,
  0x7c, 0xba, 0x0e, 0xbe, 0xff, 0x3e, 0x30, 0xbf, 0x45, 0xeb, 0x99, 0x3f,
  0x8c, 0xdd, 0x94, 0x3e, 0x16, 0xc3, 0x2c, 0xc0, 0x75, 0xa2, 0x39, 0xbf,
  0x3f, 0x43, 0x81, 0xbf, 0xda, 0xf9, 0xb6, 0x3d, 0x01, 0x66, 0x0c, 0xbf,
  0xbc, 0x02, 0x0d, 0x3f, 0x2c, 0xb7, 0xa2, 0xbf, 0xa6, 0x7b, 0x21, 0x3f,
  0x08, 0xb8, 0x82, 0xbe, 0x91, 0x6c, 0x47, 0x3f, 0x60, 0x66, 0x2c, 0xbe,
  0xe9, 0x2d, 0x28, 0x3d, 0xa7, 0x8b, 0xa8, 0x3e, 0xfc, 0x54, 0x7d, 0x3f,
  0x33, 0xec, 0x22, 0xbf, 0x2b, 0x25, 0x5a, 0xbd, 0x16, 0x8e, 0xb4, 0xbe,
  0x04, 0x74, 0xd2, 0x3e, 0xae, 0x04, 0x5b, 0x3e, 0xe3, 0x40, 0x6e, 0xbc,
  0x72, 0x23, 0x30, 0xbd, 0xe2, 0x8d, 0x20, 0xbe, 0x61, 0x7c, 0x1a, 0xbf,
  0xdb, 0x50, 0x0d, 0x3c, 0xcd, 0xea, 0xe9, 0x3d, 0x9e, 0xcd, 0x9d, 0xbf,
  0x30, 0x84, 0x20, 0xc0, 0x0a, 0x80, 0x09, 0x40, 0xe7, 0x2e, 0x05, 0xc0,
  0x5b, 0x84, 0x2f, 0x3e, 0xc3, 0x42, 0xc7, 0xbe, 0x59, 0x25, 0x1d, 0x3f,
  0xaf, 0x4f, 0x9f, 0xbf, 0x19, 0x9d, 0xa8, 0x3d, 0x03, 0x36, 0x5c, 0xbf,
  0xf0, 0xc8, 0x9b, 0x3f, 0x66, 0x21, 0x02, 0xbf, 0x85, 0xd0, 0x1b, 0xbf,
  0xab, 0x7f, 0x10, 0xbf, 0xe7, 0xbf, 0x9d, 0x3e, 0x5a, 0x09, 0x08, 0xbe,
  0x27, 0xb3, 0xb8, 0x3e, 0x6c, 0xe7, 0x6b, 0xbe, 0x63, 0x3d, 0x79, 0x3f,
  0x4a, 0xf6, 0x1a, 0xbe, 0xcd, 0x44, 0x0b, 0xbe, 0xe1, 0xb3, 0x7f, 0x3c,
  0x20, 0x16, 0x55, 0x3d, 0x4a, 0xd9, 0x00, 0xbe, 0x5a, 0x0f, 0x54, 0x3e,
  0xce, 0xba, 0x3a, 0xc0, 0x37, 0xa1, 0x83, 0xc0, 0x39, 0xab, 0xf4, 0x3f,
  0xf6, 0xf5, 0x9f, 0x3e, 0xff, 0xad, 0x98, 0xbf, 0x40, 0xb5, 0x28, 0x3b,
  0x3d, 0x59, 0xaf, 0xbf, 0x49, 0x4f, 0x05, 0xc0, 0x1a, 0x56, 0x1e, 0xc0,
  0x69, 0xbc, 0x07, 0x3e, 0x86, 0xfb, 0x7d, 0x3f, 0xcd, 0xaa, 0x9f, 0x3f,
  0x68, 0xae, 0xd2, 0xbd, 0x82, 0x2a, 0x33, 0x3e, 0x4f, 0x31, 0x39, 0x3f,
  0x52, 0xbc, 0x99, 0xbe, 0x66, 0x71, 0xf2, 0xbd, 0x16, 0x43, 0x09, 0xbf,
  0x65, 0xda, 0x50, 0xbf, 0xbb, 0x48, 0xfd, 0xbe, 0xfe, 0x1a, 0xc7, 0xbc,
  0x53, 0x2e, 0x71, 0xbd, 0x5e, 0x90, 0xb3, 0xbc, 0xab, 0xac, 0x5b, 0xbd,
  0xf0, 0x26, 0x34, 0x3d, 0xd1, 0x8e, 0xbc, 0x3c, 0x5b, 0xa8, 0x35, 0xbf,
  0xa6, 0x6f, 0x9b, 0xc0, 0x2b, 0xe1, 0x90, 0xbf, 0xf7, 0x7e, 0x5e, 0xc0,
  0x70, 0xf2, 0x43, 0xbf, 0x31, 0x1f, 0x4a, 0x3e, 0x85, 0x4a, 0x1b, 0xc0,
  0x63, 0xb6, 0x30, 0xbe, 0xb3, 0xd1, 0x8a, 0xbf, 0x2d, 0x28, 0xb7, 0x3f,
  0xbd, 0x91, 0xca, 0x3e, 0x5f, 0xea, 0x78, 0x3f, 0x7d, 0xc8, 0x11, 0xbf,
  0xbd, 0x26, 0x10, 0x3f, 0x85, 0xba, 0xce, 0xbf, 0x22, 0xa9, 0x29, 0x3e,
  0x95, 0xde, 0xd5, 0xbf, 0x9f, 0x0f, 0x6e, 0x40, 0x99, 0x76, 0x48, 0x3f,
  0xe7, 0xd2, 0x7f, 0x40, 0xef, 0x5f, 0x72, 0xbc, 0x83, 0xec, 0x05, 0x3d,
  0x4c, 0x20, 0x58, 0xbe, 0x0b, 0x21, 0x8b, 0xbe, 0x5e, 0x6c, 0xb9, 0xbd,
  0xa5, 0xa9, 0x9c, 0xbd, 0xa4, 0x59, 0x97, 0x3f, 0xa0, 0x8c, 0x51, 0xbf,
  0xc6, 0x7f, 0x90, 0x3f, 0x4d, 0x18, 0xbc, 0xbe, 0x4e, 0xa5, 0x2d, 0xc0,
  0x29, 0x62, 0xde, 0xbd, 0x9a, 0x52, 0x1d, 0x3f, 0x27, 0xea, 0xa1, 0xbf,
  0x6b, 0x29, 0x56, 0x3f, 0x92, 0xb2, 0xd0, 0x3f, 0x78, 0x4f, 0x2c, 0x3f,
  0x91, 0x2c, 0xeb, 0xbd, 0xd1, 0x88, 0xdf, 0x3e, 0x83, 0xaa, 0x08, 0x3f,
  0x81, 0xdb, 0x61, 0x3e, 0xf7, 0xa7, 0x8e, 0xbe, 0x67, 0x29, 0xba, 0xbc,
  0x21, 0x4d, 0x21, 0x40, 0xcd, 0xe8, 0x1b, 0xc0, 0x36, 0xae, 0x47, 0xbf,
  0x00, 0x3a, 0x23, 0xbd, 0x0d, 0x61, 0xa9, 0x3d, 0x69, 0xb8, 0x00, 0x3d,
  0xd1, 0x8d, 0x23, 0xbe, 0x34, 0x5e, 0xb9, 0xbd, 0xa0, 0x06, 0x48, 0xbd,
  0xbf, 0xc1, 0x1c, 0x41, 0x8a, 0xa3, 0xcc, 0xc0, 0x66, 0x8b, 0xcc, 0x3f,
  0x1f, 0xb0, 0xf2, 0x3f, 0x5d, 0x7a, 0xd7, 0xbc, 0xc8, 0x04, 0x3e, 0x3d,
  0xf2, 0x3b, 0x38, 0xc0, 0xa5, 0xed, 0x8e, 0x3f, 0x45, 0xfa, 0x4d, 0xbf,
  0x41, 0x56, 0x2a, 0xbf, 0xcf, 0x14, 0xc3, 0x3c, 0x2e, 0x12, 0x8b, 0x3f,
  0xe6, 0x01, 0xe2, 0x3e, 0xd3, 0xc6, 0x0f, 0x3f, 0x98, 0xc1, 0x91, 0x3e,
  0x22, 0x42, 0xaa, 0x3d, 0x66, 0x2f, 0x52, 0x3f, 0xd2, 0x49, 0x40, 0x3f,
  0x08, 0x30, 0x93, 0xbe, 0x8b, 0x9f, 0x21, 0xbf, 0xe8, 0xc3, 0xb7, 0x3d,
  0x57, 0x01, 0xd9, 0xbd, 0x97, 0xb8, 0xae, 0x3c, 0xff, 0x5b, 0x00, 0x3c,
  0xa6, 0x22, 0x40, 0xbc, 0x0b, 0xf4, 0x7c, 0xbb, 0x95, 0x61, 0x28, 0x40,
  0xe0, 0xd5, 0x91, 0x40, 0x58, 0x20, 0xa3, 0xc0, 0xe6, 0xa6, 0xb7, 0xbf,
  0x76, 0x76, 0x62, 0xbf, 0x87, 0x70, 0x91, 0xbe, 0x05, 0xab, 0xa9, 0x3f,
  0x27, 0x2a, 0x4d, 0x3e, 0xa4, 0x52, 0x8b, 0xbe, 0x99, 0x8b, 0xf2, 0x3e,
  0x87, 0x77, 0xf9, 0xbe, 0xb6, 0xb4, 0x1b, 0xbf, 0x1b, 0x9e, 0x09, 0xbd,
  0x14, 0x19, 0x2e, 0xbf, 0x81, 0x29, 0xc1, 0xbd, 0x57, 0x5c, 0x26, 0x3e,
  0xfc, 0x0b, 0xe1, 0x3e, 0xe9, 0xdd, 0x1e, 0x3f, 0x4d, 0xa2, 0x93, 0x3d,
  0x07, 0x0a, 0x06, 0xbe, 0x8b, 0x2a, 0x9a, 0xbd, 0x18, 0x34, 0x61, 0xbd,
  0x65, 0x7d, 0xa7, 0x3c, 0x77, 0xbf, 0x41, 0x3d, 0xfc, 0x9d, 0x87, 0xbd,
  0x77, 0x86, 0x6f, 0x3f, 0x39, 0x7e, 0x83, 0xbf, 0x88, 0x86, 0x6c, 0xc0,
  0x6b, 0x10, 0xf0, 0x3f, 0x72, 0x05, 0xce, 0xbf, 0x4f, 0x89, 0xfb, 0x3f,
  0x20, 0xe4, 0xa2, 0xbd, 0x99, 0x57, 0x7c, 0xbe, 0xed, 0x8c, 0x1c, 0x3f,
  0x52, 0x9c, 0x6e, 0x3e, 0xdd, 0xe3, 0x90, 0x3f, 0xd9, 0x93, 0x91, 0x3e,
  0x59, 0x00, 0x02, 0x3f, 0xd0, 0x6c, 0x38, 0x3f, 0x24, 0x3f, 0x99, 0xbe,
  0xb3, 0x0b, 0x5f, 0xbd, 0xdd, 0xde, 0x0c, 0x3d, 0x21, 0x46, 0x56, 0x3f,
  0xb4, 0xc2, 0x11, 0x3e, 0xad, 0x57, 0xe0, 0xbd, 0x51, 0xef, 0x34, 0xbf,
  0xde, 0x4f, 0x81, 0xbb, 0xf2, 0x71, 0xb6, 0xbd, 0x78, 0x23, 0x15, 0x3e,
  0xe7, 0xfd, 0x66, 0x3e, 0x54, 0xe3, 0x2b, 0x3f, 0x8e, 0x50, 0xd4, 0xbe,
  0x53, 0x2f, 0xda, 0x3f, 0x99, 0xc2, 0xb6, 0xbf, 0xbe, 0x52, 0x97, 0xbf,
  0xbc, 0xa3, 0xbc, 0xbf, 0x76, 0x8f, 0xff, 0x3f, 0xd9, 0xd8, 0x0a, 0x3f,
  0xdc, 0xc3, 0xa9, 0xbe, 0xa4, 0x5e, 0x36, 0x3e, 0x1c, 0x3f, 0xfc, 0xbe,
  0xb2, 0x9e, 0x37, 0x3f, 0x25, 0xa4, 0x66, 0x3e, 0x5e, 0x94, 0x2c, 0x3f,
  0x86, 0x78, 0x92, 0xbe, 0x52, 0xe8, 0x86, 0xbd, 0x1a, 0x98, 0xd4, 0x3c,
  0x48, 0x14, 0x44, 0xbb, 0x37, 0x80, 0xb3, 0x3d, 0xe2, 0xe5, 0xe2, 0x3e,
  0x02, 0xd9, 0x59, 0x3d, 0xe1, 0x02, 0x02, 0xbd, 0xaf, 0x4f, 0x25, 0xbe,
  0xa5, 0x56, 0x40, 0xbe, 0xcd, 0x6a, 0xba, 0x3d, 0x8d, 0xcc, 0xdf, 0x3c,
  0x5d, 0x31, 0xad, 0xbd, 0x3c, 0xbe, 0x3e, 0xbe, 0x8a, 0x50, 0xac, 0xc0,
  0x6f, 0x99, 0x2b, 0xbf, 0xc8, 0x85, 0xba, 0xbf, 0x0b, 0x0a, 0x64, 0x3e,
  0xe0, 0x46, 0x17, 0xc0, 0xf0, 0x6e, 0xe0, 0x3e, 0x45, 0x2f, 0x38, 0xbe,
  0x94, 0xfb, 0x08, 0x3f, 0xaa, 0x18, 0xf3, 0xbe, 0xe0, 0x38, 0x44, 0xbc,
  0xb9, 0xce, 0x7c, 0xbf, 0xf0, 0x8e, 0x2f, 0x3e, 0x2d, 0x9b, 0x18, 0xbe,
  0xbb, 0x5c, 0xcf, 0xbb, 0x69, 0x14, 0xfc, 0x3d, 0x7d, 0xf0, 0x08, 0x3e,
  0x8f, 0x96, 0xed, 0x3e, 0x12, 0xe7, 0x85, 0x3e, 0xde, 0x60, 0x4e, 0x3d,
  0x2a, 0xb8, 0xb5, 0xbe, 0xfa, 0x9d, 0xe9, 0xbc, 0xe4, 0x6e, 0x58, 0x3e,
  0x4e, 0x52, 0x49, 0xbe, 0x76, 0xac, 0xea, 0xbd, 0x64, 0x86, 0x07, 0xbe,
  0xb9, 0x89, 0x40, 0x3e, 0xee, 0x17, 0x80, 0xbf, 0x3d, 0x06, 0x8c, 0xbf,
  0xe0, 0x97, 0x78, 0x40, 0x71, 0xab, 0x0f, 0xc0, 0x50, 0x59, 0xd5, 0x3f,
  0xbf, 0x1d, 0xba, 0x3e, 0x65, 0xf3, 0x40, 0xbf, 0x4c, 0x6a, 0x50, 0x3f,
  0x15, 0x13, 0xc4, 0xbf, 0xde, 0xa1, 0xf6, 0x3c, 0xdf, 0x25, 0xf0, 0x3e,
  0xa7, 0x2c, 0x96, 0xbf, 0x71, 0xc2, 0x30, 0x3f, 0x63, 0xba, 0x41, 0x3f,
  0xd8, 0x84, 0x86, 0x3e, 0x1c, 0xb5, 0xd3, 0x3e, 0x83, 0x8f, 0x96, 0x3e,
  0x67, 0x4d, 0x55, 0x3e, 0x23, 0xd6, 0x1b, 0xbe, 0xca, 0x14, 0x3a, 0xbe,
  0x8d, 0x29, 0x80, 0xbe, 0x93, 0x58, 0x5b, 0x3e, 0x33, 0x8c, 0x0d, 0xba,
  0x20, 0xcc, 0x32, 0x3e, 0x7e, 0x46, 0x29, 0x3e, 0x20, 0x56, 0x13, 0x3e,
  0xf0, 0x28, 0x9c, 0x3d, 0x1f, 0x85, 0x3d, 0x3f, 0xab, 0x15, 0x60, 0x3f,
  0x65, 0x03, 0x93, 0xbe, 0x1d, 0x0b, 0xa8, 0xbd, 0xe0, 0x1b, 0x47, 0x3e,
  0x5e, 0x3f, 0x02, 0x3e, 0xf8, 0x60, 0x1b, 0xbf, 0x88, 0x30, 0x94, 0xbe,
  0x30, 0xc2, 0xf2, 0x3e, 0x9f, 0x27, 0x84, 0x3e, 0x09, 0xe2, 0xb8, 0x3e,
  0x2e, 0xd8, 0x28, 0x3e, 0xc3, 0x2b, 0x80, 0xbe, 0xcf, 0x99, 0x23, 0xbf,
  0x26, 0x05, 0x67, 0x3e, 0x81, 0xea, 0x0c, 0xbe, 0x4a, 0x4b, 0x48, 0x3f,
  0x2e, 0xe1, 0xfb, 0xbe, 0x50, 0xe1, 0x51, 0x3e, 0x4a, 0x25, 0x61, 0x3e,
  0xdc, 0x71, 0xec, 0x3d, 0xd2, 0x50, 0x0f, 0x3e, 0x2e, 0x10, 0x25, 0xbe,
  0xe0, 0x10, 0x82, 0x3c, 0x3e, 0xaf, 0x9c, 0xbd, 0x6a, 0x52, 0x78, 0xc0,
  0x3b, 0xcb, 0x2f, 0xbf, 0x04, 0x01, 0xc1, 0x3f, 0x96, 0x41, 0x39, 0xc0,
  0xb5, 0x96, 0x6d, 0xbf, 0xe9, 0x26, 0x97, 0xbe, 0x01, 0xaf, 0x98, 0xbf,
  0x39, 0x40, 0xda, 0xbf, 0x08, 0xa5, 0x83, 0xbf, 0x36, 0xce, 0xba, 0xbd,
  0x7e, 0xc2, 0x2f, 0xbe, 0x6e, 0x2f, 0xc5, 0x3d, 0xdd, 0x9b, 0x13, 0x3f,
  0x15, 0xf7, 0x86, 0x3f, 0x48, 0xa6, 0x02, 0x3d, 0xdb, 0xae, 0x69, 0xbf,
  0x69, 0x8e, 0x4d, 0xbf, 0x3b, 0xd0, 0x41, 0xbd, 0xe8, 0xad, 0x14, 0xbe,
  0x96, 0x00, 0x91, 0xbe, 0xe9, 0x10, 0x86, 0x3d, 0x62, 0xc2, 0x16, 0xbd,
  0x17, 0x18, 0xb0, 0xbd, 0x69, 0x7a, 0x3d, 0x3c, 0x57, 0x38, 0x93, 0x3c,
  0x03, 0x54, 0xf7, 0xbd, 0x05, 0xca, 0xb6, 0x3f, 0x35, 0x3e, 0x1a, 0x3f,
  0x8d, 0x7b, 0xfd, 0x3f, 0x6c, 0x2a, 0x2b, 0x3f, 0x57, 0xe2, 0x50, 0x3e,
  0xcb, 0x4e, 0x04, 0xbf, 0x99, 0x72, 0x83, 0xbe, 0xae, 0xdf, 0x0a, 0xbe,
  0xa2, 0xf6, 0x25, 0x3f, 0xda, 0x8c, 0xdd, 0x3e, 0xe1, 0x01, 0x16, 0xbe,
  0x8e, 0xf9, 0x5b, 0xbf, 0x74, 0x89, 0xaa, 0x3b, 0xaf, 0xdf, 0x64, 0x3e,
  0x0e, 0x43, 0xfe, 0xbe, 0x90, 0x9e, 0xd1, 0xbe, 0x37, 0x28, 0xe8, 0x3e,
  0xe5, 0x29, 0x94, 0x3e, 0x77, 0x5b, 0x5f, 0x3e, 0x4a, 0x70, 0x43, 0xbf,
  0x3f, 0x86, 0xab, 0xbd, 0x10, 0x96, 0x1b, 0x3b, 0x3a, 0x1b, 0x00, 0xbe,
  0x57, 0xd4, 0xcc, 0xbc, 0xee, 0x3d, 0x80, 0xbc, 0x02, 0xc1, 0xba, 0x3d,
  0x42, 0xb4, 0xa2, 0x3d, 0x36, 0x97, 0xb3, 0xbe, 0x8f, 0x0e, 0x00, 0x3e,
  0x74, 0xf4, 0x98, 0xbf, 0x07, 0xd8, 0x7e, 0x3f, 0xc8, 0x66, 0x6d, 0x3e,
  0x55, 0xed, 0x2a, 0x3d, 0xcb, 0xa7, 0x14, 0xbf, 0xb7, 0xad, 0x71, 0xbf,
  0x10, 0xd3, 0x82, 0xbd, 0xc8, 0xa9, 0xa0, 0xbb, 0x67, 0xcf, 0xbc, 0x3e,
  0xb4, 0x96, 0x81, 0xbe, 0xbe, 0x28, 0x46, 0xbd, 0x75, 0xcc, 0xeb, 0xbf,
  0x93, 0x60, 0x7e, 0xbe, 0x93, 0x1c, 0x1f, 0xbe, 0xe0, 0x70, 0xb7, 0x40,
  0x8e, 0x4d, 0x9a, 0x40, 0xec, 0xeb, 0x51, 0xbe, 0xef, 0x2d, 0x60, 0xbd,
  0xb8, 0x7b, 0xa3, 0x3c, 0xe9, 0xb3, 0x8e, 0x3d, 0x79, 0x82, 0xaa, 0xbc,
  0x8f, 0x70, 0x3e, 0xbc, 0x31, 0x68, 0x00, 0xbd, 0x11, 0x86, 0x52, 0x41,
  0xbe, 0x8d, 0x41, 0xc0, 0xf3, 0xaa, 0x18, 0x40, 0x42, 0x1e, 0x53, 0x40,
  0xb5, 0x09, 0xc7, 0xbe, 0x88, 0x18, 0x3a, 0xbe, 0x52, 0x55, 0x17, 0xc0,
  0x72, 0x26, 0x0f, 0x40, 0x77, 0x90, 0xe2, 0x3e, 0xd3, 0x00, 0xab, 0xbf,
  0x9f, 0xe4, 0x07, 0xbf, 0x8d, 0x97, 0x56, 0x3f, 0xd0, 0x7d, 0xdc, 0xbf,
  0x56, 0x7c, 0x6d, 0x3f, 0x52, 0xbf, 0xb5, 0xbf, 0xb3, 0x14, 0xc0, 0x3f,
  0x01, 0x77, 0x17, 0xbf, 0xe4, 0xf6, 0x0f, 0x40, 0xdb, 0x11, 0xdb, 0xbd,
  0xd7, 0xcd, 0x7d, 0x3f, 0x16, 0x08, 0xe0, 0x3c, 0xc7, 0x3b, 0x80, 0xbe,
  0x91, 0x42, 0x11, 0x3e, 0x94, 0xee, 0x14, 0xbc, 0xe7, 0xdf, 0xa1, 0xbc,
  0x83, 0xe7, 0x0d, 0x3e, 0xec, 0x07, 0x7b, 0xc0, 0xc4, 0x07, 0x84, 0xc0,
  0x29, 0xd1, 0x9c, 0x40, 0xa7, 0x02, 0x41, 0xbe, 0x75, 0x44, 0x4e, 0xbf,
  0x74, 0x64, 0x1a, 0xc0, 0x8c, 0x99, 0x16, 0x3e, 0x21, 0x9d, 0x01, 0x3e,
  0x09, 0x84, 0x81, 0x3f, 0x20, 0x8a, 0xa1, 0x3e, 0x89, 0x4b, 0x6b, 0xbd,
  0xd2, 0x7c, 0x7e, 0xbf, 0x0b, 0xa5, 0x24, 0xbe, 0xb6, 0x11, 0x30, 0xbf,
  0x7c, 0x90, 0x53, 0x3f, 0xfd, 0x33, 0x77, 0x3e, 0x60, 0xcb, 0x1a, 0x3f,
  0xc0, 0xb2, 0x9d, 0xbf, 0xf1, 0x9a, 0x7e, 0xc0, 0x05, 0x99, 0xbc, 0xc0,
  0xf7, 0x1a, 0xbe, 0xbd, 0x68, 0x01, 0xe6, 0x3d, 0x45, 0x84, 0x66, 0xbd,
  0xb7, 0x53, 0xcf, 0xbc, 0x23, 0xb5, 0x5a, 0x3c, 0x26, 0x67, 0x07, 0x3d,
  0xfe, 0x47, 0xdb, 0xbd, 0xd9, 0x41, 0x80, 0xbf, 0x59, 0xbc, 0x0d, 0xc0,
  0x06, 0x2a, 0x94, 0x3f, 0xfa, 0x57, 0xf3, 0xbe, 0xb7, 0x04, 0x37, 0x3f,
  0xe4, 0x1b, 0x5d, 0xbf, 0x90, 0x68, 0x87, 0x3e, 0x5a, 0x0f, 0xb1, 0x3e,
  0x10, 0xcb, 0x10, 0x3f, 0xf9, 0x4a, 0xaa, 0xbe, 0x9f, 0xa3, 0x7b, 0x3a,
  0x17, 0x28, 0xd1, 0x3d, 0x38, 0x49, 0x0f, 0x3f, 0x51, 0x1c, 0xed, 0x3d,
  0x86, 0xcd, 0x8e, 0xbd, 0xb4, 0x40, 0x56, 0xbd, 0x3c, 0x6a, 0xa8, 0xbe,
  0xa9, 0x64, 0x4f, 0x3e, 0xf4, 0xa7, 0xba, 0x3d, 0x41, 0x79, 0x9e, 0xbd,
  0x29, 0xa7, 0xd4, 0x3d, 0xea, 0x6d, 0x45, 0x3e, 0xd2, 0x7e, 0x0f, 0x3e,
  0x73, 0x4a, 0xaf, 0xbd, 0x56, 0xea, 0x82, 0xbd, 0x21, 0x92, 0x01, 0x3f,
  0x9e, 0xc4, 0xda, 0xbf, 0x0a, 0xf0, 0x30, 0xc0, 0xe7, 0x95, 0x9d, 0x3f,
  0xe7, 0x2f, 0x53, 0x3e, 0x55, 0xff, 0xb8, 0x3d, 0xe3, 0xa4, 0x2b, 0xbf,
  0x5a, 0xc9, 0xcd, 0x3e, 0x67, 0xec, 0xa7, 0x3e, 0x1b, 0xf4, 0xc9, 0xbd,
  0x25, 0xf4, 0x9d, 0xbe, 0x5f, 0xc5, 0x76, 0xbe, 0x44, 0x68, 0xda, 0xbd,
  0xc2, 0x88, 0xca, 0x3d, 0xf4, 0x90, 0xeb, 0x3e, 0x57, 0x9a, 0x7a, 0xbf,
  0x0a, 0xa6, 0xf4, 0xbe, 0x08, 0x51, 0xd8, 0x3e, 0x36, 0x07, 0xbc, 0xbb,
  0xa1, 0x8d, 0x09, 0x3e, 0x45, 0xe0, 0x3c, 0x3d, 0x3c, 0x46, 0xcb, 0xbd,
  0x06, 0xfa, 0xe2, 0x3d, 0x60, 0x9d, 0x0d, 0xbd, 0xe4, 0xdb, 0x2f, 0x3d,
  0x00, 0x5f, 0x94, 0x3c, 0xb1, 0x4e, 0x52, 0x3f, 0x31, 0x79, 0xb5, 0xbf,
  0xa2, 0x60, 0x1a, 0xc0, 0x5b, 0xe2, 0x60, 0xbe, 0x08, 0xfb, 0x97, 0xbd,
  0x05, 0x33, 0x71, 0x3f, 0xb7, 0x41, 0x6e, 0xbf, 0xd4, 0x6a, 0x28, 0x3f,
  0x49, 0x74, 0x3c, 0xbd, 0xd7, 0x7f, 0xa3, 0x3f, 0x8a, 0xae, 0x38, 0xbf,
  0xff, 0xa2, 0xd4, 0x3e, 0x1d, 0x69, 0xd9, 0xbe, 0xf6, 0x6e, 0xa7, 0x3e,
  0xed, 0x79, 0xa8, 0x3c, 0xb9, 0x4c, 0xbe, 0x3d, 0xe1, 0x70, 0x56, 0xbe,
  0xec, 0x4d, 0x22, 0x3e, 0xaf, 0x55, 0x0a, 0xbd, 0xc5, 0xa3, 0x59, 0x3e,
  0xfc, 0xb1, 0x2e, 0x3e, 0xe3, 0x60, 0x61, 0x3e, 0x13, 0x20, 0xe5, 0xbd,
  0x7f, 0xaf, 0xb5, 0xbf, 0x74, 0x08, 0xb6, 0xbf, 0xd9, 0x89, 0xeb, 0xbd,
  0xbe, 0xb2, 0x2b, 0x3e, 0xc7, 0xb6, 0x47, 0xbf, 0xca, 0x0a, 0x91, 0xbe,
  0xe7, 0x43, 0x38, 0x3f, 0x9c, 0x22, 0xab, 0x3e, 0x33, 0x7e, 0x7e, 0xbf,
  0xd7, 0x34, 0x9a, 0xbe, 0x01, 0x85, 0xc7, 0xbe, 0xb1, 0xfa, 0x06, 0x3f,
  0xb8, 0x4b, 0x6d, 0xbe, 0x1e, 0x86, 0x1a, 0xbe, 0xae, 0x8f, 0x66, 0x3c,
  0x7e, 0x9e, 0x99, 0xbe, 0x3a, 0x7d, 0x04, 0x3f, 0x37, 0xce, 0xfe, 0xbf,
  0x64, 0xb9, 0x78, 0x3f, 0x63, 0x3f, 0x24, 0x3f, 0xd3, 0x09, 0xe5, 0x40,
  0x70, 0x30, 0x9d, 0xc0, 0xa8, 0x9c, 0x64, 0xc0, 0x3d, 0x81, 0x29, 0xbe,
  0xb6, 0x2b, 0x15, 0x3e, 0x9b, 0x30, 0xa7, 0xbd, 0x17, 0x0c, 0x53, 0xbd,
  0xc6, 0x12, 0xd4, 0xbc, 0xb6, 0xb3, 0x41, 0x3d, 0xad, 0xdd, 0xa2, 0xbf,
  0x09, 0xd0, 0xb0, 0xc0, 0xf1, 0x1d, 0xac, 0x40, 0xae, 0x09, 0x77, 0xc0,
  0x8e, 0xea, 0x04, 0x41, 0xef, 0xfe, 0x18, 0xbf, 0xdf, 0x15, 0xbb, 0xbf,
  0xee, 0x15, 0x55, 0x40, 0x17, 0xcc, 0x1a, 0x40, 0x4a, 0x6a, 0xb7, 0xbf,
  0x5a, 0x16, 0x68, 0xbf, 0x67, 0xff, 0x1e, 0x3f, 0x69, 0x85, 0xcf, 0xbe,
  0x19, 0xab, 0x0e, 0xbf, 0x83, 0x50, 0xfe, 0x3f, 0xd3, 0xc9, 0xf1, 0xbe,
  0xac, 0x26, 0xae, 0x3f, 0xef, 0x99, 0x68, 0xbf, 0x05, 0x1e, 0xdd, 0xbf,
  0x17, 0xc8, 0x89, 0xc0, 0x6f, 0x81, 0x46, 0xbe, 0xe3, 0x6f, 0x89, 0x3c,
  0x2d, 0xea, 0xbf, 0xbd, 0x19, 0xb7, 0x40, 0x3c, 0x60, 0x51, 0x00, 0xbd,
  0x25, 0xbb, 0x01, 0x3d, 0x83, 0xfc, 0x3a, 0x3f, 0x33, 0xc0, 0xa8, 0x41,
  0x40, 0xaf, 0x81, 0x41, 0xcd, 0x36, 0x93, 0x3f, 0xdd, 0xd8, 0x37, 0x3c,
  0xdc, 0x59, 0xa8, 0xbf, 0x60, 0xc1, 0x30, 0xc0, 0xd2, 0x44, 0x61, 0xc0,
  0xa5, 0x78, 0x07, 0x40, 0x81, 0x01, 0xb4, 0x3e, 0xb1, 0x7e, 0x89, 0x3d,
  0x41, 0x00, 0x4f, 0x3e, 0x21, 0x93, 0x4c, 0x3f, 0x6c, 0xaf, 0x9c, 0xbf,
  0x3c, 0x9a, 0x4a, 0x40, 0xc9, 0x19, 0x94, 0xbf, 0xac, 0x73, 0xad, 0x3e,
  0x9e, 0x73, 0xd3, 0xbf, 0x8e, 0xbf, 0x40, 0x3f, 0x57, 0xd0, 0x38, 0xc0,
  0x14, 0x6e, 0x2b, 0x3e, 0x53, 0xdb, 0xd8, 0x3d, 0x13, 0xa1, 0x32, 0xbd,
  0x04, 0x64, 0x9e, 0x3d, 0xb6, 0xf5, 0x81, 0x3c, 0xee, 0xda, 0xed, 0xbd,
  0x13, 0x77, 0x02, 0xc0, 0x54, 0x6c, 0x4a, 0xc0, 0x66, 0xfa, 0x90, 0xc0,
  0xc4, 0xef, 0xd2, 0xbe, 0x44, 0x1d, 0xb4, 0xbd, 0xe5, 0x1d, 0x20, 0xbf,
  0x53, 0x96, 0x8b, 0x3f, 0x7a, 0x55, 0x75, 0x3f, 0x99, 0xb6, 0xce, 0xbf,
  0x9f, 0xb7, 0xc3, 0xbe, 0xdb, 0x00, 0xf1, 0xbe, 0x62, 0x88, 0x91, 0x3e,
  0xa0, 0xf0, 0x36, 0x3e, 0x1c, 0x1d, 0x32, 0xc0, 0x48, 0x55, 0x3b, 0x3f,
  0xf2, 0x5e, 0x1f, 0xbe, 0x5b, 0x7f, 0x55, 0x3e, 0x2c, 0xda, 0x09, 0xbf,
  0xd5, 0xde, 0xb2, 0xbd, 0x0e, 0x25, 0xd0, 0x3e, 0x87, 0x14, 0x10, 0xbe,
  0xe1, 0x3f, 0x0f, 0x3d, 0x0b, 0x7c, 0x34, 0xbd, 0x2b, 0x17, 0xce, 0x3d,
  0x08, 0xe1, 0x48, 0xbd, 0xd3, 0x2b, 0xf3, 0xbd, 0x15, 0x55, 0x37, 0xc0,
  0xa7, 0x4a, 0x48, 0x40, 0x97, 0x8f, 0x1c, 0xc0, 0xee, 0x2d, 0xde, 0xbe,
  0x51, 0x8b, 0x8f, 0xbf, 0xa0, 0x81, 0xf3, 0xbe, 0xdd, 0x41, 0x8d, 0x3f,
  0x4f, 0x32, 0x0d, 0xc0, 0x8e, 0xda, 0x9a, 0x3e, 0xe0, 0xa3, 0xb5, 0x3f,
  0x41, 0x88, 0xbf, 0x3e, 0x04, 0x5b, 0x37, 0xbf, 0xbd, 0xcc, 0xce, 0x3d,
  0x2f, 0x72, 0xf0, 0xbe, 0x45, 0xf4, 0x1f, 0xbf, 0xb1, 0x91, 0xbe, 0xbf,
  0x34, 0xd8, 0x1b, 0x3f, 0x4b, 0xeb, 0x91, 0x3f, 0xea, 0x2b, 0x53, 0x40,
  0x35, 0x4d, 0x3d, 0xc0, 0x58, 0xc2, 0xf4, 0xbd, 0x30, 0xf5, 0x4b, 0x3d,
  0x53, 0xc8, 0x6a, 0xbe, 0x02, 0xa1, 0x89, 0x3c, 0x2b, 0xc9, 0x8f, 0xbd,
  0x04, 0x12, 0xea, 0xbc, 0xa4, 0x93, 0x62, 0xc0, 0x38, 0x58, 0x80, 0xbf,
  0xea, 0x5b, 0xaf, 0x3f, 0xb6, 0xf5, 0x10, 0x3f, 0x49, 0x60, 0x98, 0xbd,
  0x9d, 0xd9, 0xb6, 0x3e, 0x78, 0x8a, 0xe3, 0xbe, 0xdf, 0x64, 0x03, 0xbe,
  0x07, 0xb7, 0xc6, 0xbe, 0x2a, 0x17, 0xa1, 0x3e, 0xd6, 0xc3, 0x0a, 0x3f,
  0x29, 0x3e, 0x1d, 0xbe, 0x48, 0x65, 0x1c, 0x3e, 0x2d, 0xbd, 0x12, 0xbe,
  0xa1, 0xaa, 0x17, 0x3e, 0x52, 0xf2, 0x16, 0x3e, 0xc7, 0x13, 0x99, 0x3d,
  0x79, 0x13, 0x5e, 0x3c, 0x2e, 0xf6, 0xa3, 0xbe, 0xa0, 0xf6, 0x08, 0x3d,
  0x43, 0x72, 0x8c, 0x3d, 0xb8, 0x8d, 0x6e, 0xbd, 0x3b, 0x1a, 0xf6, 0x3d,
  0xa0, 0x76, 0xb3, 0xbc, 0x84, 0x71, 0xdc, 0xbc, 0x48, 0x46, 0x78, 0x3d,
  0x89, 0xe8, 0x0b, 0x3e, 0xc1, 0x6b, 0x3f, 0x3f, 0xbc, 0x99, 0xa5, 0x3f,
  0xc8, 0x00, 0xf7, 0xbd, 0x0e, 0xa6, 0x57, 0xbb, 0x4e, 0xaf, 0x1f, 0x3f,
  0x43, 0x31, 0x6e, 0xbe, 0xec, 0xb9, 0x81, 0xbe, 0xcd, 0x75, 0x2e, 0x3d,
  0x11, 0xd7, 0xca, 0x3e, 0x2e, 0x2f, 0xb8, 0x3e, 0x46, 0xd1, 0x97, 0xbd,
  0x17, 0x8e, 0x60, 0x3e, 0x41, 0xef, 0x27, 0xbe, 0xde, 0x73, 0xde, 0xbd,
  0x36, 0xa4, 0xc7, 0x3d, 0x82, 0xb5, 0x45, 0x3d, 0x7b, 0x93, 0x12, 0xbd,
  0x3f, 0xd2, 0x09, 0xbe, 0xe9, 0x3e, 0xf7, 0xbc, 0x6e, 0x67, 0xf2, 0xbd,
  0xa9, 0x31, 0x2d, 0xbd, 0x46, 0xed, 0xa7, 0x3d, 0x7c, 0x76, 0x76, 0x3f,
  0x27, 0xa9, 0x7a, 0xbf, 0x2d, 0xe3, 0x9c, 0x3f, 0xb9, 0x53, 0x02, 0x3f,
  0xe7, 0x24, 0xbb, 0x3c, 0xb5, 0x51, 0x96, 0xbf, 0x2d, 0x8e, 0xc9, 0x3d,
  0x25, 0xdb, 0xef, 0xbd, 0x71, 0x5f, 0xc7, 0x3e, 0xac, 0xa7, 0xc1, 0xbe,
  0x92, 0x44, 0x62, 0x3e, 0x61, 0xa3, 0x00, 0xbe, 0x6b, 0x23, 0xa4, 0x3e,
  0xbc, 0x36, 0x50, 0xbe, 0x29, 0xd9, 0x38, 0x3d, 0x02, 0x98, 0x0a, 0xbe,
  0xc1, 0x94, 0x13, 0x3e, 0x26, 0x3a, 0xd1, 0x3d, 0xf7, 0x55, 0x71, 0xbd,
  0x5d, 0xba, 0x82, 0xbe, 0x8e, 0x8c, 0x46, 0xbd, 0xcf, 0x13, 0x5f, 0x3d,
  0x1e, 0xc0, 0x5f, 0x3e, 0xde, 0x9f, 0x53, 0x3d, 0xf8, 0x28, 0x52, 0xbd,
  0xf7, 0xf3, 0x1b, 0xbe, 0xc6, 0x81, 0x8f, 0xbf, 0xb3, 0x90, 0x90, 0x3f,
  0xb2, 0x19, 0xc7, 0x3f, 0xab, 0x8f, 0xdc, 0x40, 0x27, 0xc1, 0x28, 0x41,
  0x85, 0x63, 0x0d, 0xc1, 0x9a, 0x61, 0xab, 0xbf, 0x18, 0x14, 0xab, 0xbf,
  0xad, 0x3f, 0x82, 0x3f, 0x88, 0xf5, 0x65, 0xbf, 0x10, 0x1c, 0xae, 0x3e,
  0xd7, 0x5b, 0x90, 0xbf, 0x4c, 0x05, 0xe3, 0xbf, 0x6f, 0x44, 0x9e, 0xbf,
  0x54, 0x01, 0x0f, 0x3f, 0xbc, 0xc1, 0xdd, 0xbe, 0x7b, 0x32, 0x43, 0xbd,
  0x98, 0x7d, 0xc1, 0xbe, 0x0c, 0xc7, 0x61, 0x3f, 0x59, 0xcd, 0x90, 0xbf,
  0x33, 0xce, 0xea, 0x3f, 0x9f, 0x55, 0x88, 0x3f, 0x44, 0x63, 0x5c, 0x3f,
  0x43, 0x41, 0xb3, 0xbd, 0x84, 0xde, 0xd8, 0xbd, 0x3f, 0x7c, 0x6d, 0x3e,
  0xff, 0x7b, 0x26, 0xbc, 0x4a, 0x03, 0x92, 0xbd, 0xd9, 0x41, 0x8f, 0x3d,
  0x44, 0x6a, 0x1a, 0x41, 0x28, 0x05, 0xc5, 0x3f, 0xa0, 0xb4, 0xba, 0x3f,
  0xcf, 0x16, 0x8d, 0xbf, 0x9b, 0x78, 0x81, 0xbf, 0x20, 0x48, 0x1a, 0xbf,
  0x7a, 0xae, 0x15, 0xc0, 0x13, 0x4c, 0x9c, 0x40, 0xf9, 0x29, 0x3c, 0x40,
  0xb9, 0xdd, 0x44, 0xbf, 0x75, 0xa7, 0x77, 0x3d, 0x18, 0xc5, 0x35, 0x3e,
  0x3a, 0x24, 0x92, 0xbf, 0x2b, 0x8f, 0x67, 0xbf, 0xf8, 0x0b, 0x05, 0xbf,
  0xeb, 0xca, 0xb7, 0xbf, 0x9b, 0x07, 0xaa, 0xbf, 0xe0, 0xd5, 0x8e, 0xbf,
  0x76, 0x99, 0x01, 0xbf, 0xdf, 0xda, 0x0c, 0xc0, 0x00, 0xd3, 0x81, 0x3d,
  0xae, 0x7b, 0x26, 0xbd, 0x11, 0xaa, 0x06, 0xbc, 0x3a, 0x72, 0x86, 0xbd,
  0xd7, 0xb8, 0x0d, 0xbd, 0xff, 0x42, 0xdd, 0x3c, 0x99, 0xa3, 0x57, 0xc0,
  0x06, 0x67, 0x09, 0x40, 0xd3, 0xdb, 0x5c, 0x40, 0x11, 0x2a, 0x06, 0x40,
  0x3a, 0x25, 0xda, 0x3f, 0x3a, 0xb7, 0x00, 0xbe, 0x70, 0x65, 0x29, 0xc0,
  0xfc, 0x12, 0xdf, 0x3f, 0x45, 0x07, 0x13, 0xc0, 0xe9, 0x12, 0x2d, 0x3f,
  0x7d, 0xa8, 0x50, 0xbf, 0xcf, 0x0c, 0xab, 0x3f, 0x03, 0x99, 0x03, 0x40,
  0x72, 0x74, 0x61, 0xbf, 0x2c, 0xc4, 0x66, 0x3f, 0x7d, 0x0e, 0x92, 0x3f,
  0x4e, 0xa9, 0x9a, 0xbf, 0xa0, 0x11, 0x09, 0xc0, 0x7c, 0xce, 0xd2, 0xbe,
  0xd8, 0x88, 0xc0, 0x3e, 0x7e, 0x26, 0xf2, 0xbd, 0xe9, 0xba, 0x11, 0x3d,
  0xa8, 0xc5, 0xa3, 0xbc, 0x85, 0x12, 0x9b, 0x3d, 0xe3, 0x61, 0x9b, 0xbd,
  0x04, 0x2a, 0xca, 0xb9, 0x2d, 0xd7, 0xaa, 0x3f, 0x18, 0xc3, 0xa9, 0xbf,
  0xd0, 0xf3, 0x20, 0xbf, 0xf5, 0x4b, 0x91, 0xbf, 0x4d, 0x1e, 0x6c, 0x3e,
  0x59, 0x88, 0x83, 0x3d, 0xfa, 0xdd, 0x06, 0xc0, 0x6d, 0xca, 0x7e, 0x40,
  0x90, 0xd3, 0x40, 0x40, 0x6d, 0xd6, 0x13, 0x3f, 0xd0, 0xe4, 0xde, 0xbf,
  0x63, 0x1c, 0xdd, 0x3f, 0x7b, 0x21, 0x21, 0x40, 0x9b, 0x2c, 0xf7, 0xbe,
  0x6a, 0x25, 0xd8, 0x3e, 0x85, 0x08, 0x76, 0x3f, 0x31, 0x2b, 0xa9, 0x3f,
  0xe4, 0xde, 0x28, 0xbf, 0x70, 0xb7, 0x8f, 0xbf, 0x10, 0x67, 0x86, 0xbe,
  0x7c, 0xa4, 0xed, 0x3d, 0x7c, 0xe3, 0x3c, 0xbe, 0x77, 0xd1, 0x71, 0xbe,
  0xd3, 0xf4, 0xd4, 0x3c, 0x74, 0x90, 0x6d, 0xbb, 0x25, 0x01, 0x03, 0xbd,
  0xdd, 0x36, 0x90, 0xbf, 0xc3, 0xf2, 0x20, 0xbe, 0xfb, 0x2c, 0x79, 0x40,
  0x37, 0x6d, 0x16, 0x41, 0x6f, 0x99, 0xa7, 0xc0, 0x29, 0x1f, 0x25, 0xbf,
  0x54, 0xc3, 0xca, 0xbf, 0x1a, 0xb5, 0xe7, 0x40, 0xbd, 0xfa, 0x5f, 0xc0,
  0x13, 0x7a, 0xb8, 0xbd, 0x31, 0x09, 0x05, 0x40, 0xcb, 0xec, 0xa8, 0xbe,
  0x34, 0xdc, 0x8d, 0xbf, 0xa8, 0xe7, 0xd6, 0x3e, 0x69, 0x17, 0x68, 0x3f,
  0x47, 0x39, 0xa4, 0x3f, 0x29, 0xc3, 0x94, 0x3f, 0x9f, 0x71, 0x90, 0x3f,
  0x4b, 0xee, 0x05, 0x3d, 0x54, 0xc4, 0x9f, 0xbf, 0xe8, 0xe6, 0x3d, 0x3d,
  0x33, 0xcd, 0x80, 0xbe, 0x0b, 0x8c, 0x57, 0xbd, 0xe8, 0xec, 0x25, 0x3c,
  0xbc, 0x19, 0x8c, 0x3c, 0xd3, 0x2e, 0x46, 0x3d, 0xe0, 0xf4, 0xe3, 0xbe,
  0x88, 0x7f, 0x79, 0xbd, 0x83, 0xf8, 0xc0, 0x3f, 0x24, 0xfe, 0x86, 0xbd,
  0xae, 0x26, 0xd3, 0x3e, 0xaa, 0x9a, 0xcf, 0xbe, 0x55, 0x98, 0x4b, 0xbe,
  0x82, 0xa3, 0x83, 0x3c, 0x89, 0x2a, 0x03, 0xbe, 0x98, 0x5e, 0x7d, 0xbe,
  0x8f, 0xc0, 0xb1, 0x3e, 0x04, 0xc5, 0xfc, 0xbd, 0x0b, 0x9f, 0x8d, 0x3e,
  0x67, 0x07, 0xb3, 0xbd, 0x75, 0x42, 0x03, 0xbd, 0xb8, 0x4d, 0xd2, 0xbd,
  0xe9, 0x57, 0x20, 0x3d, 0x3d, 0xc0, 0xcf, 0xbc, 0x16, 0x39, 0xd1, 0x3d,
  0x7b, 0x83, 0x9b, 0xbd, 0xd3, 0xfa, 0xef, 0xbd, 0xb3, 0xe1, 0x33, 0x3d,
  0xa2, 0x21, 0x4e, 0x3c, 0x49, 0xee, 0x81, 0x3c, 0x1f, 0xb6, 0x90, 0xbc,
  0xdb, 0x2f, 0xc6, 0xbf, 0x1b, 0xa1, 0x4d, 0xbf, 0xa0, 0xf6, 0x60, 0xbf,
  0x26, 0x17, 0xe8, 0xbd, 0xf5, 0xc0, 0x3f, 0x3f, 0x4e, 0x49, 0xc5, 0x3f,
  0xca, 0x69, 0x3b, 0x3e, 0x1a, 0x4b, 0xbc, 0xbe, 0x98, 0x9e, 0x79, 0x3e,
  0x87, 0xbd, 0x91, 0xbe, 0x2a, 0x81, 0x91, 0x3e, 0xc1, 0x52, 0xa4, 0xbd,
  0x8a, 0x7d, 0xb2, 0x3c, 0x75, 0xda, 0x99, 0xbe, 0x55, 0xe1, 0x68, 0x3e,
  0x11, 0xf7, 0x3c, 0xbe, 0x3e, 0x4e, 0x88, 0x3d, 0x47, 0x40, 0x05, 0x3e,
  0xab, 0xf5, 0x02, 0x3e, 0x86, 0xe0, 0x8f, 0xbe, 0x9a, 0x15, 0x12, 0xbe,
  0xea, 0xea, 0x20, 0xbd, 0xad, 0x53, 0x86, 0x3d, 0xc2, 0xb3, 0x00, 0x3c,
  0xd5, 0x5f, 0x80, 0x3d, 0x5a, 0x07, 0x63, 0x3d, 0xc5, 0x2d, 0xce, 0xbc,
  0x6b, 0xde, 0xdd, 0xbf, 0x1d, 0x08, 0xae, 0xbf, 0xc3, 0x3b, 0x84, 0x40,
  0x3f, 0x27, 0xcb, 0xbe, 0x6a, 0x08, 0x75, 0x3e, 0x10, 0x39, 0xe7, 0x3d,
  0x5f, 0xa1, 0xb9, 0xbd, 0xd8, 0x90, 0x4d, 0x3c, 0xf7, 0xb5, 0x4b, 0xbf,
  0xe6, 0x24, 0x6f, 0xbe, 0x74, 0x51, 0x09, 0x3f, 0x84, 0x6c, 0x95, 0xbe,
  0x85, 0x5b, 0x47, 0x3e, 0xb8, 0x94, 0xdd, 0xbc, 0xd1, 0xab, 0x4f, 0x3f,
  0x64, 0x93, 0x3c, 0xbe, 0x99, 0x2d, 0x88, 0xbf, 0x98, 0xf2, 0xd3, 0x3e,
  0xa0, 0xce, 0x03, 0xbf, 0xdf, 0x17, 0x44, 0xbf, 0x51, 0x3a, 0x13, 0x3e,
  0x38, 0x73, 0xb5, 0x3b, 0x3b, 0xe4, 0xde, 0x3c, 0xde, 0xbd, 0x95, 0x3d,
  0x0c, 0x38, 0x27, 0x3d, 0x07, 0x42, 0xc1, 0x3c, 0x4a, 0x3d, 0xd9, 0x3f,
  0xff, 0x1e, 0xa4, 0xbf, 0x62, 0x8b, 0x22, 0xc0, 0xf3, 0xf1, 0x58, 0x3f,
  0x60, 0x1f, 0x8c, 0x40, 0xd9, 0x3b, 0xf6, 0xbe, 0x95, 0xd2, 0xa9, 0xbe,
  0xf1, 0x12, 0xd0, 0xbe, 0xec, 0x8a, 0x6d, 0x3f, 0x88, 0x73, 0x81, 0x3e,
  0xb1, 0x26, 0x77, 0x3d, 0xad, 0x48, 0xa2, 0x3d, 0x50, 0x88, 0x69, 0x3f,
  0x8a, 0x54, 0x02, 0xbe, 0x7c, 0x01, 0x73, 0xbf, 0x42, 0xd5, 0x02, 0xbf,
  0x7a, 0x85, 0x0c, 0x3f, 0x4f, 0x5e, 0x60, 0xbe, 0xf2, 0xa3, 0xa9, 0x3e,
  0xcc, 0xd0, 0x33, 0xbf, 0xae, 0xec, 0xf1, 0xbb, 0xe3, 0xd2, 0xaa, 0x3d,
  0x33, 0xbb, 0x2a, 0xbe, 0xf8, 0xda, 0xef, 0x3d, 0x75, 0xb7, 0x81, 0x3e,
  0xde, 0x36, 0xc3, 0xbd, 0xa7, 0xb1, 0x84, 0x3f, 0xc2, 0x8e, 0xf6, 0x3f,
  0x79, 0x52, 0xdf, 0x3f, 0x32, 0xbe, 0xbe, 0xbf, 0x7e, 0xd8, 0x4d, 0xbf,
  0x78, 0x1e, 0x6d, 0x3e, 0x9e, 0xca, 0x9f, 0xbf, 0xd1, 0xa5, 0xe8, 0xbf,
  0x12, 0x98, 0x03, 0x40, 0xb0, 0xa9, 0x09, 0x3f, 0x7e, 0x72, 0xe9, 0x3e,
  0x0c, 0xeb, 0x7d, 0xbe, 0x2b, 0x2f, 0xbd, 0x3c, 0x57, 0x16, 0x9d, 0x3f,
  0xab, 0x90, 0x78, 0xbf, 0x92, 0xb7, 0xf9, 0x3e, 0xc5, 0xe5, 0xae, 0x3f,
  0xb6, 0x37, 0x50, 0x3f, 0xd5, 0xdb, 0x2c, 0xbf, 0xe7, 0x07, 0x20, 0xbe,
  0xa1, 0x7b, 0xb3, 0x3d, 0xba, 0x3e, 0x02, 0x3e, 0x6d, 0x86, 0x47, 0xbd,
  0xcc, 0x02, 0xdd, 0x3c, 0x2f, 0x52, 0x6e, 0x3d, 0x0f, 0xa1, 0x79, 0x3d,
  0x63, 0xd7, 0x52, 0x40, 0xfe, 0xb7, 0xac, 0x3f, 0xd8, 0x18, 0x51, 0x40,
  0x46, 0xa8, 0x09, 0xbe, 0x48, 0x33, 0xe8, 0xbf, 0xf8, 0xda, 0x1d, 0xbe,
  0xff, 0x01, 0x6e, 0xbf, 0xea, 0x65, 0x59, 0x3f, 0x77, 0xa5, 0x3b, 0xc0,
  0x11, 0x33, 0xc8, 0x3f, 0x1b, 0xba, 0xcd, 0x3f, 0xe4, 0xc9, 0xa4, 0x3f,
  0xe6, 0xa5, 0xff, 0xbe, 0x83, 0x75, 0x02, 0xbe, 0x51, 0x70, 0xb4, 0x3e,
  0x37, 0x1e, 0x61, 0xbe, 0x89, 0xf6, 0xe6, 0xbf, 0x11, 0x7c, 0x2a, 0x40,
  0x8d, 0xcb, 0x55, 0x40, 0x55, 0xdc, 0xb7, 0x3f, 0x0c, 0x62, 0xe1, 0x3d,
  0x42, 0x0c, 0x27, 0x3e, 0x22, 0xda, 0x57, 0xbd, 0xcb, 0xd1, 0x25, 0xbc,
  0xb3, 0x12, 0x8a, 0xbd, 0x48, 0x3c, 0xed, 0xbd, 0xff, 0x16, 0x05, 0xc0,
  0xf2, 0x74, 0x2b, 0xc0, 0x8f, 0x7e, 0x6d, 0xc0, 0x20, 0x0a, 0x1c, 0x40,
  0xcc, 0xf9, 0xa0, 0xbf, 0x2e, 0xe0, 0xb6, 0x3e, 0x0d, 0x79, 0xf5, 0x3e,
  0xfc, 0x2f, 0xbb, 0xbe, 0x63, 0xca, 0xa5, 0xbd, 0xd9, 0x47, 0x71, 0x3f,
  0xe1, 0xbb, 0xe5, 0xbe, 0x82, 0xef, 0xf9, 0x3b, 0x47, 0xd9, 0x7a, 0xbe,
  0x85, 0x16, 0x2b, 0x3f, 0xdc, 0x72, 0xfb, 0xbd, 0x97, 0x8a, 0x2e, 0x3e,
  0x02, 0x2e, 0x38, 0xbf, 0xa1, 0xc6, 0x0d, 0x3f, 0x8d, 0x57, 0xc5, 0x3d,
  0xb5, 0x39, 0xfa, 0x3e, 0x4e, 0x48, 0x65, 0xbe, 0x16, 0x16, 0x75, 0xbe,
  0xb6, 0xd7, 0xb0, 0xbd, 0xbd, 0x07, 0x01, 0xbe, 0x95, 0x93, 0xcb, 0xbd,
  0x10, 0xdf, 0x37, 0x3e, 0x30, 0xab, 0xd5, 0x3f, 0xea, 0xc0, 0xd2, 0x3f,
  0x64, 0xa6, 0x46, 0x3f, 0x77, 0x2a, 0xe0, 0xc0, 0x3c, 0x6e, 0x52, 0xc0,
  0x59, 0x52, 0x40, 0x3e, 0x00, 0x01, 0x15, 0xbf, 0x66, 0x2a, 0x60, 0xbc,
  0xdd, 0xe0, 0xfb, 0xbe, 0xd2, 0x3a, 0x17, 0x3f, 0x6b, 0x0c, 0xa2, 0x3f,
  0x05, 0x1d, 0x25, 0xbf, 0xaf, 0x9c, 0xe4, 0xbe, 0xff, 0xd7, 0x4a, 0x3f,
  0xd5, 0xcf, 0xdd, 0xbe, 0x12, 0x37, 0xf2, 0xbe, 0x31, 0xc3, 0xf2, 0xbe,
  0x54, 0x71, 0xff, 0xbd, 0x4d, 0x12, 0x84, 0x3e, 0x51, 0x71, 0x38, 0x3e,
  0x39, 0x43, 0x57, 0x3e, 0xcd, 0x36, 0xe5, 0xbc, 0x07, 0xda, 0xf6, 0x3d,
  0xea, 0xc4, 0x8c, 0xbd, 0x59, 0xab, 0x7e, 0xbd, 0xa4, 0x67, 0x18, 0xbe,
  0x1e, 0x9d, 0xc2, 0x3f, 0xad, 0xa9, 0xba, 0x3f, 0x83, 0x05, 0x9e, 0xbf,
  0xc9, 0xcc, 0x7c, 0xbf, 0x05, 0x09, 0x58, 0xbf, 0x47, 0x90, 0x30, 0x3f,
  0x52, 0x87, 0x8b, 0xbe, 0x17, 0x74, 0x99, 0x3d, 0x2b, 0x57, 0x61, 0x3e,
  0x7d, 0xf9, 0x23, 0x3f, 0x89, 0xbb, 0x0e, 0xbf, 0x64, 0xa9, 0xa1, 0x3e,
  0xd2, 0x95, 0xc8, 0xbe, 0xa8, 0x34, 0x18, 0x3e, 0x68, 0x8c, 0xbb, 0xbe,
  0xa8, 0x78, 0x5e, 0xbe, 0x4b, 0x76, 0x04, 0xbf, 0x44, 0xe8, 0x9f, 0x3e,
  0xb1, 0xd9, 0x5b, 0x3e, 0xf9, 0x03, 0x35, 0x3f, 0xed, 0xbe, 0x00, 0xbc,
  0x5c, 0x16, 0x5c, 0xbc, 0xb4, 0x4a, 0x49, 0xbd, 0xc8, 0x79, 0x13, 0x3d,
  0x1b, 0xa4, 0x01, 0xbe, 0x4b, 0x01, 0x51, 0x3d, 0x13, 0xe0, 0x7d, 0x3f,
  0x21, 0xa0, 0xdf, 0xbf, 0x05, 0x22, 0x9c, 0x40, 0xfc, 0x68, 0x82, 0xc0,
  0xd2, 0x96, 0x7d, 0xbf, 0x58, 0x98, 0xed, 0xbd, 0xe1, 0x7c, 0x10, 0xbf,
  0x53, 0xf1, 0x9e, 0x3e, 0x51, 0x7a, 0x48, 0xbf, 0x7d, 0xb0, 0x9d, 0xbf,
  0x16, 0x94, 0xec, 0x3e, 0xe9, 0x9f, 0x26, 0xbe, 0xb1, 0x36, 0xad, 0xbd,
  0xa3, 0x43, 0x12, 0xbe, 0xda, 0x70, 0x3b, 0xbe, 0x3d, 0x58, 0x36, 0x3e,
  0x81, 0xbb, 0x0d, 0x40, 0xa1, 0x42, 0x91, 0x3f, 0x54, 0xbb, 0x1c, 0xbf,
  0xdd, 0x6a, 0xb3, 0xc0, 0x1d, 0xf8, 0x93, 0x3e, 0xaf, 0xec, 0xfa, 0x3d,
  0xbd, 0x84, 0x74, 0xbd, 0x50, 0x9e, 0xa2, 0xbc, 0x02, 0x68, 0x25, 0x3d,
  0x80, 0x55, 0x5c, 0x3d, 0x20, 0xa5, 0x7f, 0xbf, 0xff, 0x72, 0x1f, 0xc0,
  0xf6, 0x76, 0x73, 0xbf, 0x4c, 0xb8, 0x40, 0xbf, 0x4f, 0x6e, 0x4b, 0x3e,
  0xfb, 0x32, 0x06, 0xbd, 0xe3, 0xef, 0xad, 0x3f, 0xdb, 0x29, 0x80, 0xbe,
  0x42, 0xa2, 0x4f, 0x3e, 0xbd, 0x3a, 0xd1, 0x3f, 0x8f, 0xd7, 0x81, 0xbf,
  0xb0, 0xc8, 0x1d, 0xbf, 0xe2, 0x9d, 0x7f, 0xbf, 0x95, 0x31, 0x8f, 0xbf,
  0x23, 0x75, 0x9b, 0xbf, 0xde, 0x01, 0x9e, 0xbe, 0x59, 0xec, 0xf5, 0x3e,
  0x32, 0x58, 0x6c, 0x3d, 0x03, 0x03, 0x43, 0xbd, 0x69, 0x41, 0xe5, 0x3e,
  0xae, 0x26, 0x9f, 0x3c, 0x76, 0xb9, 0x2d, 0xbd, 0x10, 0x67, 0x8a, 0x3c,
  0x06, 0xcf, 0x55, 0xbd, 0x3f, 0xe7, 0x2b, 0xbd, 0x38, 0x17, 0x9e, 0x3e,
  0x7d, 0xf8, 0x42, 0x40, 0x0a, 0x9c, 0x5d, 0xc1, 0x41, 0xb0, 0x94, 0xc1,
  0xb4, 0x49, 0xa4, 0x3f, 0x2c, 0xd3, 0x3c, 0x3f, 0xae, 0x60, 0x6f, 0x3f,
  0x01, 0x7c, 0x7e, 0xbe, 0x5e, 0xe0, 0x1c, 0xbf, 0x5e, 0x53, 0x39, 0xbf,
  0xd4, 0x7f, 0x02, 0xc0, 0xdc, 0x0a, 0x87, 0xbf, 0x03, 0xfa, 0xb6, 0x3e,
  0xd3, 0x4c, 0x99, 0xbf, 0x08, 0xab, 0x88, 0xbe, 0x5a, 0x26, 0x95, 0x3e,
  0x3e, 0x74, 0xb1, 0x3f, 0x93, 0x86, 0x1b, 0xbf, 0xbb, 0x39, 0xad, 0x3f,
  0xb8, 0x8f, 0x87, 0xbf, 0xe6, 0xa5, 0x9d, 0xbd, 0xc7, 0xd4, 0x05, 0xbe,
  0x93, 0xe7, 0xf9, 0x3c, 0xa2, 0xd6, 0x7d, 0x3e, 0x29, 0xee, 0x8d, 0x3b,
  0xb7, 0xf2, 0xab, 0x3c, 0x76, 0x50, 0xae, 0x3c, 0x7e, 0xb3, 0xb2, 0x3f,
  0x10, 0xcc, 0xac, 0xbe, 0xfa, 0x1e, 0x09, 0xc0, 0x77, 0x78, 0xed, 0xbe,
  0xfa, 0x77, 0x0a, 0x3e, 0xb9, 0xe2, 0x3d, 0x3e, 0x9b, 0xe6, 0x84, 0xbe,
  0x67, 0x46, 0xed, 0x3d, 0xa7, 0xf3, 0x9d, 0xbd, 0xdc, 0x48, 0x19, 0xbe,
  0x54, 0x35, 0xd5, 0xbe, 0xa9, 0x17, 0x39, 0x3c, 0x00, 0xce, 0x19, 0xbf,
  0x52, 0x62, 0x4b, 0x3e, 0x6c, 0x19, 0x44, 0x3e, 0xcf, 0x1c, 0xcf, 0x3e,
  0xe1, 0xd2, 0x8c, 0x3e, 0x8b, 0xf0, 0xb2, 0x3d, 0x76, 0x66, 0x25, 0xbe,
  0x80, 0xeb, 0x92, 0xbe, 0xa8, 0x78, 0xbf, 0xbd, 0x6f, 0xa1, 0x29, 0x3d,
  0x89, 0x14, 0x27, 0xbe, 0x4c, 0x9d, 0x32, 0xbd, 0xdf, 0x3b, 0x35, 0xbc,
  0xee, 0xc9, 0x90, 0xbf, 0x93, 0x19, 0x5b, 0x40, 0x5f, 0xc3, 0x24, 0x40,
  0x72, 0xc3, 0x61, 0x40, 0xd9, 0x64, 0x37, 0xbf, 0x62, 0x87, 0xda, 0x38,
  0xab, 0x5a, 0xfe, 0xbe, 0x44, 0xab, 0xa4, 0xbe, 0x49, 0x0c, 0xd5, 0x3e,
  0x8c, 0x55, 0xc5, 0x3e, 0xeb, 0xb6, 0x7c, 0xbe, 0x10, 0x08, 0x7d, 0xbf,
  0xe0, 0xe8, 0x58, 0x3f, 0x70, 0xad, 0x96, 0xbf, 0x81, 0x41, 0x3e, 0x3f,
  0xe9, 0xc4, 0x85, 0x3f, 0x54, 0xa3, 0x1f, 0x3d, 0xef, 0x27, 0x0a, 0xbf,
  0xba, 0x7f, 0x05, 0xbe, 0x58, 0xfc, 0x24, 0x3d, 0x3e, 0xdc, 0xad, 0xbf,
  0x7f, 0x5b, 0xbc, 0x3d, 0x25, 0x81, 0xeb, 0xbd, 0x5a, 0xd5, 0xb7, 0xbd,
  0xb8, 0xdb, 0x52, 0xbd, 0x6e, 0x41, 0x5b, 0x3d, 0x28, 0xd8, 0x2b, 0x3e,
  0x0b, 0x97, 0x63, 0xc0, 0x7a, 0x25, 0x61, 0xc0, 0x71, 0x5b, 0xa9, 0x40,
  0x3a, 0xdd, 0x2a, 0xbf, 0xaa, 0xd6, 0xcf, 0x3e, 0xf5, 0x4d, 0x12, 0xbf,
  0x5a, 0xbf, 0x89, 0xbe, 0x75, 0x9c, 0x78, 0xbe, 0x70, 0x41, 0xae, 0x3f,
  0xac, 0x12, 0xfc, 0x3e, 0x60, 0x13, 0x01, 0x3f, 0x45, 0x80, 0x8f, 0xbf,
  0xc0, 0xd4, 0x09, 0xbe, 0x8a, 0xdb, 0x36, 0xbf, 0x2d, 0x39, 0x92, 0x3f,
  0x5d, 0xcf, 0xd9, 0x3d, 0xc6, 0x6f, 0x29, 0x3f, 0xf1, 0x93, 0xc8, 0xbf,
  0x2e, 0x2c, 0x86, 0xc0, 0x8c, 0xcd, 0xd3, 0xc0, 0x86, 0xe6, 0xdd, 0xbd,
  0xbe, 0xd1, 0x4f, 0x3d, 0xe1, 0x8f, 0xee, 0xbc, 0xed, 0xf5, 0x98, 0xbd,
  0xd4, 0x8c, 0x0c, 0x3d, 0xcd, 0x2a, 0xa6, 0xbc, 0xed, 0x1b, 0xfe, 0xbf,
  0xfe, 0x88, 0x58, 0x3e, 0xca, 0xb0, 0x0d, 0x3f, 0x0f, 0x7d, 0xd8, 0xbe,
  0xa8, 0x77, 0xcb, 0xbe, 0x2d, 0xc3, 0x42, 0xbe, 0xe1, 0x09, 0x5d, 0xbe,
  0xe6, 0xd8, 0xf7, 0x3c, 0x76, 0x45, 0x0a, 0xbf, 0xb1, 0xc7, 0xa3, 0x3e,
  0x67, 0x9a, 0xe6, 0x3e, 0xf4, 0x16, 0xc6, 0x3d, 0xf1, 0xf5, 0x15, 0xbe,
  0xc0, 0x73, 0xb3, 0x3e, 0xf5, 0xc9, 0x84, 0xbd, 0x97, 0xdb, 0xaa, 0xbb,
  0xf7, 0x6d, 0x9f, 0xbe, 0x2c, 0xb8, 0x43, 0x3f, 0xca, 0xe9, 0x8a, 0xbe,
  0xc3, 0x3d, 0xa7, 0xbe, 0xdb, 0x95, 0x8f, 0xbd, 0xc8, 0xc6, 0x0f, 0x3e,
  0xbb, 0x9a, 0x35, 0xbc, 0x4c, 0xc1, 0x1e, 0xbd, 0xa5, 0xbe, 0x8b, 0x3b,
  0x7e, 0xd0, 0x7c, 0x3c, 0xcc, 0x0b, 0x15, 0xbe, 0x79, 0x50, 0x77, 0x3f,
  0x23, 0xb1, 0x33, 0xc0, 0x56, 0x4f, 0xfb, 0xbe, 0xe0, 0xe9, 0x84, 0x40,
  0x4f, 0xc8, 0xfd, 0xbe, 0xc4, 0x38, 0x08, 0xc0, 0xb3, 0x1b, 0xac, 0x40,
  0x97, 0xb2, 0x2c, 0xc0, 0xfb, 0x8f, 0xc1, 0xbf, 0xf1, 0x1a, 0x9a, 0xbf,
  0xbe, 0x56, 0x6e, 0xbf, 0x6c, 0xc5, 0x47, 0xbf, 0x2c, 0xcd, 0x10, 0x3f,
  0x72, 0x67, 0x56, 0xbf, 0x82, 0x7c, 0x2c, 0x3f, 0x72, 0x41, 0xb1, 0x3f,
  0x2f, 0x55, 0x23, 0x3f, 0x6e, 0x39, 0xb0, 0x3f, 0xdb, 0x6d, 0x9a, 0xbf,
  0x79, 0x78, 0xc4, 0xbc, 0xce, 0x29, 0xeb, 0x35, 0x3a, 0x6e, 0x4f, 0x3e,
  0xf8, 0xd1, 0xec, 0xba, 0xcc, 0xb1, 0x5d, 0x3d, 0x81, 0x12, 0x2e, 0x3e,
  0xd5, 0x4b, 0xf8, 0x3f, 0x03, 0x8c, 0x1c, 0x40, 0x45, 0x25, 0x4d, 0xbb,
  0x79, 0xa0, 0x63, 0xbf, 0xc7, 0x36, 0xcf, 0xbf, 0x5f, 0xd6, 0x0b, 0x3f,
  0xb9, 0xf9, 0xaa, 0xbe, 0x01, 0xe9, 0x85, 0x3d, 0xcc, 0x37, 0x1d, 0x3e,
  0x46, 0xd0, 0xc7, 0x3e, 0xf5, 0xf1, 0x91, 0xbe, 0x33, 0x79, 0x48, 0x3e,
  0x15, 0x27, 0xb4, 0x3e, 0xaf, 0xd5, 0x37, 0xbe, 0xf3, 0xcf, 0xc5, 0xbd,
  0x61, 0xf2, 0x77, 0xba, 0x09, 0x2c, 0x53, 0x3e, 0xf7, 0xc4, 0xb1, 0x3d,
  0x05, 0xb2, 0x59, 0xbe, 0x28, 0x8c, 0x29, 0xbe, 0xdf, 0x84, 0xb6, 0xbd,
  0x6e, 0x90, 0x16, 0x3d, 0x6f, 0x52, 0x50, 0x3e, 0xad, 0x7a, 0x7b, 0x3c,
  0x26, 0xa1, 0xe8, 0x3d, 0x12, 0x9e, 0xa0, 0x3d, 0x28, 0x43, 0x97, 0xbe,
  0x09, 0xf9, 0x46, 0xc0, 0xc3, 0xae, 0xef, 0xbf, 0xc2, 0x12, 0x81, 0xbf,
  0x94, 0x1d, 0xd5, 0x3e, 0x51, 0xde, 0x9b, 0x3e, 0x2d, 0xfc, 0xd0, 0xbe,
  0x37, 0x6e, 0x20, 0x3f, 0x87, 0x8e, 0x08, 0xbe, 0x9b, 0x9b, 0xbb, 0x3f,
  0x76, 0x44, 0x6d, 0xbd, 0xbc, 0xf3, 0x29, 0x3f, 0x4e, 0x30, 0xfa, 0xbd,
  0x47, 0x9a, 0x29, 0xbe, 0x92, 0x12, 0xd9, 0x3c, 0x62, 0x96, 0xb1, 0x3e,
  0xcb, 0x47, 0x41, 0x3f, 0xed, 0x2a, 0xb4, 0xbf, 0x9d, 0x95, 0xc0, 0xbe,
  0xfc, 0x23, 0x25, 0x3f, 0x8e, 0x00, 0x54, 0xbc, 0x55, 0x84, 0xd7, 0xbd,
  0xf2, 0x78, 0x6d, 0x3e, 0x79, 0x89, 0x28, 0x3d, 0xfd, 0x63, 0x5a, 0x3d,
  0x16, 0xd8, 0x93, 0xbd, 0x45, 0xd7, 0x8c, 0xc1, 0xaa, 0xec, 0x0a, 0xc1,
  0x5a, 0xb7, 0x79, 0x40, 0x4e, 0xed, 0x72, 0xc0, 0x22, 0xfe, 0x73, 0x40,
  0xce, 0x52, 0xe3, 0xbe, 0x2f, 0xb3, 0xf2, 0xbf, 0x16, 0x52, 0xc3, 0xc0,
  0xb7, 0x90, 0xe6, 0xc0, 0xcc, 0xe3, 0x0a, 0x3f, 0x66, 0x11, 0x97, 0xbf,
  0xc2, 0xfc, 0x68, 0xbf, 0xd3, 0xb7, 0x29, 0x3f, 0x20, 0x1d, 0x93, 0x3f,
  0xef, 0x85, 0x57, 0x3f, 0xba, 0x6b, 0xe9, 0x3f, 0xdc, 0x47, 0x92, 0xbf,
  0x64, 0x43, 0xe1, 0x3d, 0x16, 0x5b, 0xc9, 0xbf, 0xda, 0x6c, 0xae, 0xbf,
  0x98, 0x0d, 0x2b, 0x3d, 0x17, 0xa4, 0x9e, 0x3d, 0x61, 0x0c, 0x72, 0xbe,
  0x70, 0xa2, 0xab, 0x3c, 0x96, 0x34, 0x53, 0x3d, 0x1a, 0x20, 0x2b, 0x3d,
  0xc8, 0x80, 0x37, 0x3f, 0x3f, 0x73, 0xf2, 0xbf, 0x41, 0x78, 0x60, 0x3f,
  0x67, 0x1b, 0x5b, 0x40, 0x34, 0x1d, 0x18, 0x3d, 0xd8, 0xd5, 0x2e, 0xbe,
  0x03, 0xa5, 0x56, 0xbd, 0x80, 0x5b, 0x62, 0x3f, 0xa6, 0xff, 0x15, 0x3e,
  0x12, 0x51, 0x76, 0xbe, 0xa8, 0xfb, 0xc3, 0xbe, 0xe9, 0x00, 0x09, 0x3f,
  0x67, 0xfc, 0x37, 0xbf, 0xd9, 0x8a, 0xd6, 0xbe, 0xde, 0xaf, 0x62, 0x3e,
  0x17, 0xe5, 0x0b, 0xbe, 0x1c, 0xac, 0x5b, 0xbe, 0x41, 0x0e, 0x3b, 0x3d,
  0x0b, 0xa4, 0x67, 0x3e, 0xb1, 0x7e, 0x1a, 0x3e, 0xcd, 0x05, 0x3e, 0xbd,
  0x24, 0x0d, 0xfe, 0xbd, 0xba, 0xe8, 0x5b, 0xbd, 0x13, 0xba, 0x12, 0xbd,
  0xc6, 0x70, 0xf6, 0x3c, 0x90, 0x42, 0xaa, 0xbe, 0x82, 0x5d, 0x04, 0x3f,
  0xf8, 0xe9, 0x02, 0xbf, 0x18, 0x6c, 0xc6, 0xbf, 0xb1, 0xce, 0xe5, 0xbd,
  0x7f, 0x72, 0xa6, 0x3d, 0x2a, 0x7d, 0x24, 0x3f, 0x01, 0xeb, 0x97, 0xbf,
  0x10, 0x5e, 0xbf, 0x3e, 0xcc, 0x00, 0x8b, 0x3d, 0x6d, 0x1c, 0xac, 0x3f,
  0xc2, 0xea, 0xe2, 0xbe, 0xb6, 0x87, 0xd0, 0x3e, 0xb5, 0xf1, 0xc2, 0xbe,
  0xef, 0x30, 0x86, 0x3e, 0xe2, 0xbe, 0x2f, 0xbe, 0x5e, 0xcc, 0x4b, 0xbd,
  0xbb, 0xc3, 0x48, 0xbe, 0x85, 0x94, 0x25, 0x3e, 0x90, 0xda, 0xcf, 0x3c,
  0xc7, 0x65, 0x26, 0x3e, 0x4f, 0xb8, 0x6a, 0x3e, 0xf4, 0x65, 0x48, 0xbe,
  0xb5, 0x65, 0xa9, 0xbe, 0x43, 0xc8, 0xa8, 0x3f, 0x89, 0x0b, 0xa0, 0xbf,
  0x88, 0xa9, 0x81, 0x3f, 0xc5, 0x83, 0x59, 0xc1, 0x51, 0xdf, 0xaf, 0xc0,
  0xd7, 0x72, 0x1a, 0x40, 0x78, 0xe8, 0xd8, 0x3f, 0x46, 0x23, 0x9d, 0xbc,
  0x1b, 0x2a, 0x07, 0xbf, 0x82, 0xce, 0x23, 0xc0, 0xb5, 0x61, 0x36, 0xc0,
  0xdc, 0x17, 0xac, 0xbf, 0x52, 0x77, 0x54, 0xbf, 0xad, 0x70, 0x0d, 0x3e,
  0x56, 0xd4, 0x9a, 0x3f, 0xfb, 0xae, 0x9d, 0xbe, 0x35, 0x08, 0x44, 0x3f,
  0x63, 0xc0, 0xdc, 0x3e, 0x76, 0xe8, 0xd1, 0xbd, 0x8c, 0x56, 0x46, 0xbd,
  0xbc, 0xcd, 0x70, 0xbf, 0xc6, 0x05, 0x79, 0xbf, 0x81, 0x2a, 0x34, 0xbf,
  0x23, 0x5b, 0x13, 0x3e, 0xbd, 0x19, 0xf6, 0x3d, 0xe1, 0x43, 0x09, 0xbd,
  0xe4, 0x0e, 0x8a, 0x3b, 0xdb, 0x64, 0x3e, 0xbd, 0x2d, 0xf9, 0xf2, 0x3d,
  0xe9, 0xa4, 0xa3, 0x3f, 0xee, 0x26, 0xb4, 0xbe, 0xb3, 0x95, 0xb4, 0x41,
  0x9d, 0xf9, 0xde, 0x40, 0xed, 0x9d, 0x86, 0xc0, 0x75, 0xaa, 0x59, 0x3e,
  0x04, 0xa5, 0xc1, 0xbe, 0x45, 0x7f, 0x09, 0xc0, 0x32, 0xc3, 0x49, 0x40,
  0xbd, 0x57, 0xa1, 0xbf, 0x75, 0xe7, 0xb1, 0xbe, 0xf7, 0x3a, 0x64, 0x3f,
  0xab, 0x17, 0x44, 0xbf, 0xfa, 0x81, 0x4f, 0xbf, 0xf1, 0xa3, 0x07, 0x3f,
  0x96, 0x80, 0xc8, 0xbe, 0xd4, 0xb2, 0x1a, 0xbe, 0x60, 0x13, 0xb9, 0xbf,
  0x75, 0xc1, 0x8b, 0x3f, 0x8a, 0xbb, 0xf7, 0xbf, 0x63, 0xc3, 0x00, 0x3d,
  0xf0, 0xca, 0x73, 0x3c, 0xfa, 0xe9, 0xb6, 0xbd, 0x75, 0x64, 0x04, 0x3d,
  0x84, 0x92, 0xe3, 0xbc, 0x85, 0xaf, 0x9d, 0x3c, 0xfa, 0x73, 0x77, 0x40,
  0xb1, 0xe5, 0x78, 0x41, 0x71, 0x3c, 0x7a, 0xc0, 0xc2, 0x26, 0x93, 0x3e,
  0x1a, 0x15, 0x7a, 0xbf, 0xf3, 0xf4, 0x8d, 0x3f, 0x2e, 0x68, 0x88, 0x3e,
  0x06, 0x51, 0x76, 0x3d, 0xe3, 0x5a, 0x71, 0x40, 0x85, 0x94, 0xf9, 0xbe,
  0x7a, 0xf2, 0x32, 0x3e, 0x49, 0xaa, 0x10, 0x3f, 0x0e, 0x11, 0xeb, 0xbb,
  0x53, 0xac, 0x2b, 0x3f, 0x63, 0xfa, 0x5d, 0x3e, 0x3d, 0x1b, 0x86, 0xbf,
  0xec, 0x0f, 0x20, 0xbf, 0xee, 0x94, 0xab, 0x3d, 0x37, 0x83, 0x0d, 0x3e,
  0x10, 0x17, 0xcc, 0xbc, 0x8d, 0xb7, 0x81, 0x3c, 0x8c, 0x9f, 0xcd, 0x3d,
  0xa2, 0x1d, 0x1e, 0xbd, 0x8b, 0xf3, 0x04, 0xbc, 0x71, 0x68, 0x6e, 0x3c,
  0x0a, 0x33, 0x4c, 0x3d, 0x85, 0xf2, 0x54, 0xbf, 0xa0, 0x9a, 0x7a, 0xbf,
  0xfb, 0x00, 0xf6, 0xbf, 0x9e, 0x9b, 0xe1, 0x3e, 0x72, 0xa0, 0x0b, 0xbf,
  0x56, 0x49, 0x2f, 0x3f, 0x56, 0x04, 0xfe, 0xbe, 0x20, 0x61, 0x1d, 0xbd,
  0xc0, 0x52, 0x32, 0xbe, 0x94, 0x8b, 0xae, 0xbe, 0xa8, 0x3d, 0x80, 0xbd,
  0x7e, 0x1f, 0x4e, 0xbe, 0x08, 0x42, 0x34, 0xbe, 0x4c, 0x36, 0x81, 0xbe,
  0x3d, 0x22, 0x19, 0xc0, 0x37, 0x9d, 0xf1, 0xbf, 0x33, 0x4c, 0xfd, 0xbe,
  0xac, 0x47, 0x37, 0xbf, 0xc6, 0x60, 0xc3, 0xbe, 0xe1, 0xf6, 0x43, 0x3e,
  0x7d, 0x7a, 0x61, 0x3e, 0x21, 0x05, 0x67, 0x3d, 0xcc, 0xe1, 0x3f, 0xbd,
  0x7d, 0x7e, 0xf0, 0xbc, 0x15, 0xcc, 0x2a, 0xbd, 0x4c, 0x1b, 0x47, 0x3d,
  0x94, 0x44, 0x73, 0x3f, 0x07, 0x5f, 0x0e, 0xbf, 0xdb, 0xa3, 0x81, 0x40,
  0x0f, 0x22, 0x1a, 0x41, 0xc4, 0x75, 0x50, 0x41, 0x6f, 0x21, 0xd9, 0xbe,
  0xc6, 0x70, 0x2b, 0xbf, 0x60, 0xc7, 0xd8, 0x3f, 0x60, 0xb4, 0x99, 0xbf,
  0xc3, 0xf7, 0xba, 0x3e, 0xec, 0xff, 0x9a, 0xbf, 0x67, 0xd5, 0x25, 0x3f,
  0x80, 0x59, 0xf0, 0x3f, 0x9e, 0x17, 0xb3, 0xbd, 0xc5, 0xfb, 0x81, 0x3e,
  0xfd, 0x50, 0x12, 0x3f, 0xa8, 0xea, 0x32, 0xbf, 0x35, 0x8c, 0xd1, 0xbe,
  0xd3, 0xa4, 0x6f, 0xbe, 0x63, 0xd4, 0x2a, 0xbf, 0xf4, 0x48, 0x89, 0xbe,
  0x85, 0x09, 0x7d, 0x3d, 0x6b, 0x6d, 0x72, 0xbd, 0x34, 0xaf, 0xc3, 0xbc,
  0xef, 0x64, 0x73, 0x3d, 0xb9, 0x22, 0x00, 0x3e, 0xfc, 0xf3, 0xc8, 0x3f,
  0x11, 0x7d, 0xf9, 0x40, 0x99, 0x03, 0x57, 0x40, 0xac, 0x6d, 0x6b, 0xc1,
  0xbf, 0x49, 0x11, 0xbf, 0x02, 0xd5, 0x8f, 0xbe, 0x0e, 0xaf, 0x5c, 0xbf,
  0x7e, 0xae, 0x26, 0xbd, 0xa5, 0xd0, 0x5b, 0x40, 0x8d, 0xc0, 0xaf, 0x3e,
  0x92, 0xa8, 0xc7, 0x3e, 0xc8, 0x79, 0x3d, 0x3f, 0x7c, 0x6b, 0xac, 0xbe,
  0xa2, 0xde, 0x50, 0x3f, 0xfe, 0xbe, 0xfb, 0x3e, 0xe9, 0x0c, 0xd1, 0xbe,
  0x80, 0x6a, 0xd4, 0xbf, 0xfa, 0x2a, 0x2b, 0xbf, 0x65, 0xc6, 0xa9, 0x3e,
  0x42, 0xbc, 0x0e, 0xbf, 0x93, 0x3e, 0x74, 0x3a, 0xfb, 0xb4, 0x0a, 0xbe,
  0x45, 0x53, 0x6b, 0x3c, 0x56, 0x43, 0xf7, 0xbc, 0x47, 0xb7, 0x51, 0x3c,
  0x85, 0xa3, 0x31, 0x3e, 0xde, 0xfd, 0xeb, 0xbf, 0x02, 0x10, 0xa6, 0xbe,
  0xd9, 0x0d, 0xd5, 0xbf, 0x69, 0xcc, 0x87, 0xbf, 0x77, 0x87, 0x04, 0xbf,
  0xca, 0x64, 0x39, 0xbe, 0x42, 0xa2, 0x81, 0xbd, 0xac, 0x3d, 0xab, 0x3e,
  0xf6, 0xbc, 0xa8, 0x3d, 0x97, 0x18, 0x2e, 0x3f, 0xd1, 0x5f, 0x45, 0xbe,
  0x76, 0xf0, 0x2b, 0xbd, 0x8e, 0xd5, 0x0e, 0x3f, 0x85, 0x47, 0xea, 0x3e,
  0x57, 0xf2, 0x35, 0xbe, 0x5c, 0x75, 0xa7, 0x3e, 0xb2, 0x5f, 0xc2, 0xbe,
  0x47, 0x68, 0x07, 0x3f, 0x36, 0x27, 0x77, 0xbe, 0x0b, 0xce, 0x4a, 0xbf,
  0x92, 0x1a, 0x08, 0x3b, 0xbf, 0x7a, 0xc0, 0xbd, 0xc2, 0xf7, 0xa9, 0x3e,
  0xbd, 0x28, 0xe0, 0xbc, 0x8e, 0xc4, 0x90, 0x3d, 0x7e, 0x78, 0x7d, 0x3e,
  0xbe, 0x9d, 0xd7, 0x3e, 0x57, 0x62, 0xe4, 0xbd, 0x84, 0x28, 0x3d, 0x3f,
  0x0c, 0x11, 0x98, 0xbd, 0xb1, 0xe2, 0x38, 0x3d, 0xcb, 0xb7, 0x04, 0xbf,
  0xca, 0xb3, 0x33, 0xbe, 0xad, 0xaa, 0x40, 0xbe, 0x7d, 0x24, 0x20, 0xbe,
  0x52, 0xfd, 0x45, 0x3e, 0x6d, 0xbe, 0xb4, 0x3e, 0x35, 0xa5, 0x41, 0xbe,
  0x4b, 0xc0, 0x7b, 0x3e, 0xe9, 0xbd, 0x3d, 0xbe, 0x91, 0x00, 0x4c, 0xbd,
  0xc5, 0x0b, 0xd6, 0xbc, 0x61, 0xb2, 0xd4, 0x3d, 0xbd, 0x76, 0xcc, 0xbd,
  0xb8, 0xdf, 0x1f, 0x3c, 0xd9, 0x76, 0x8d, 0xbd, 0x29, 0xf5, 0xc2, 0xbc,
  0x63, 0x5a, 0x88, 0xbd, 0xc5, 0xfb, 0x69, 0x3d, 0xf1, 0x9e, 0x62, 0xbf,
  0xb2, 0xa0, 0x6a, 0x3f, 0xc3, 0x6a, 0x96, 0xbf, 0x5c, 0x91, 0x21, 0x41,
  0x45, 0xf9, 0xf2, 0xbe, 0x35, 0x51, 0xa1, 0xc0, 0x94, 0x95, 0xde, 0x3f,
  0x24, 0x66, 0x6a, 0x3f, 0x86, 0x5c, 0x7e, 0xbe, 0xfe, 0xc7, 0xa0, 0xbf,
  0x9e, 0xee, 0x41, 0xbf, 0x84, 0xe2, 0xef, 0x3e, 0x83, 0x4d, 0xcc, 0xbf,
  0xf8, 0x3d, 0x8c, 0xbf, 0xef, 0x8c, 0x25, 0xbf, 0xdb, 0xf5, 0x23, 0x3f,
  0x19, 0x79, 0x0b, 0xbf, 0x71, 0xf8, 0x2b, 0x3e, 0xe2, 0xdc, 0x2a, 0x3e,
  0x2e, 0xa4, 0x38, 0xbf, 0xb6, 0x05, 0x10, 0x3f, 0x16, 0x37, 0xa1, 0x3d,
  0x6f, 0x16, 0x49, 0x3e, 0x91, 0x69, 0x2f, 0xbe, 0xcc, 0x81, 0xa2, 0x3d,
  0x65, 0x7d, 0x9e, 0x3d, 0x69, 0xa1, 0x9d, 0xbd, 0xe6, 0xb7, 0x04, 0x3d,
  0x3d, 0x91, 0xc7, 0x3d, 0x0d, 0xd8, 0xed, 0x3f, 0xdb, 0x18, 0x80, 0x3e,
  0x2c, 0x0d, 0x25, 0x3f, 0xf6, 0x60, 0x00, 0xc0, 0x29, 0x65, 0xdf, 0xbf,
  0xfb, 0x68, 0x94, 0x3c, 0x09, 0xa0, 0x96, 0xbf, 0x81, 0xfb, 0x5d, 0xbf,
  0xbb, 0xb8, 0xab, 0x3f, 0x58, 0x91, 0xf3, 0xbe, 0xba, 0xb6, 0x9f, 0xbe,
  0x0b, 0x10, 0x24, 0x3f, 0x66, 0x22, 0xd5, 0x3e, 0x64, 0xcc, 0x75, 0xbf,
  0xfd, 0x3c, 0xea, 0xbe, 0xaa, 0x4c, 0x7c, 0x3e, 0xcd, 0x09, 0x24, 0x3f,
  0x74, 0x3a, 0x85, 0x3f, 0xe2, 0x7b, 0x98, 0xbd, 0xca, 0xd1, 0xbb, 0xbe,
  0x78, 0x86, 0xc5, 0xbd, 0xa2, 0xab, 0x88, 0x3d, 0xc3, 0xe9, 0xbd, 0xbd,
  0xee, 0xe5, 0x77, 0x3e, 0x14, 0x39, 0x80, 0xbc, 0x68, 0xd2, 0xbd, 0xbd,
  0xac, 0x70, 0xcf, 0x3f, 0x38, 0xbe, 0x51, 0xbf, 0xa1, 0x2d, 0x94, 0x3f,
  0x65, 0xd3, 0xae, 0x3e, 0x0e, 0x41, 0xc0, 0x3e, 0xdf, 0xe9, 0xb3, 0x3e,
  0xe9, 0x49, 0xb1, 0xbf, 0xae, 0xa3, 0x88, 0x3f, 0x1f, 0x0c, 0x00, 0x3e,
  0x45, 0x9d, 0xcd, 0xbb, 0x56, 0xbc, 0x4f, 0x3e, 0x0e, 0x01, 0x63, 0x3f,
  0x40, 0x91, 0x26, 0x3f, 0x3b, 0x30, 0x20, 0x3f, 0x03, 0x3f, 0xeb, 0x3e,
  0xb8, 0xbc, 0x0a, 0x3f, 0xd9, 0xac, 0x50, 0xbe, 0xcd, 0xc1, 0xc6, 0xbf,
  0x43, 0x4a, 0x11, 0xc0, 0xcf, 0x19, 0x37, 0x40, 0xc5, 0x1d, 0xe2, 0x3b,
  0x36, 0x3a, 0xfd, 0x3d, 0x2d, 0x2b, 0xc3, 0x3c, 0x29, 0xa5, 0x4a, 0x3b,
  0x58, 0xcd, 0x03, 0x3d, 0xd8, 0x2f, 0xb3, 0xbb, 0x95, 0x27, 0x1c, 0xbd,
  0x4b, 0xc7, 0x13, 0xbf, 0x2f, 0xcb, 0x71, 0xbe, 0x9b, 0x28, 0x58, 0xbe,
  0x9e, 0xee, 0x25, 0xbe, 0xeb, 0x94, 0xc8, 0x3d, 0xc2, 0x1f, 0x24, 0xbf,
  0xcb, 0x77, 0xda, 0x3d, 0xe2, 0xd1, 0x26, 0x3d, 0x28, 0x6d, 0x4b, 0x3f,
  0xe9, 0x2f, 0x3e, 0xbe, 0x8f, 0xf6, 0x60, 0x3d, 0x7b, 0xa6, 0x87, 0xbc,
  0x97, 0x15, 0xe7, 0x3c, 0x2d, 0x86, 0xe0, 0xbd, 0xb8, 0xda, 0xdb, 0x3d,
  0xf9, 0xd0, 0x02, 0xbe, 0x60, 0x0d, 0xfc, 0x3d, 0x3a, 0x1b, 0x96, 0xbd,
  0x97, 0xe4, 0x88, 0x3d, 0x60, 0x02, 0x48, 0xbd, 0xc4, 0x91, 0xbe, 0xbd,
  0x77, 0xd9, 0xfe, 0x3d, 0xfb, 0x04, 0xa2, 0x3f, 0xb5, 0x6b, 0x97, 0xbf,
  0x1a, 0xd8, 0xeb, 0xbf, 0x14, 0xb8, 0x75, 0x3d, 0x5d, 0x75, 0x3f, 0xc0,
  0x0c, 0x87, 0x98, 0x3f, 0x5c, 0x53, 0x6d, 0xbf, 0xa7, 0xab, 0x19, 0x40,
  0x7a, 0x1a, 0x32, 0x3e, 0x95, 0xac, 0x9e, 0xbe, 0x9a, 0xcc, 0xd7, 0x3f,
  0xfa, 0xc8, 0x7a, 0x3e, 0xbe, 0x8a, 0xa5, 0x3f, 0xd0, 0x9c, 0x89, 0x3e,
  0x77, 0x30, 0x8f, 0x3f, 0x71, 0x84, 0xe9, 0xbf, 0x06, 0x58, 0x32, 0xbe,
  0x39, 0x46, 0x55, 0x3e, 0xd4, 0x76, 0x82, 0x3e, 0x1e, 0xb7, 0x72, 0xbf,
  0x44, 0x95, 0xc6, 0x3d, 0xed, 0x84, 0x20, 0xbe, 0xa3, 0xea, 0x10, 0x3e,
  0xcf, 0xbb, 0xb7, 0xbd, 0xe9, 0xc7, 0x81, 0xbd, 0x7e, 0x30, 0x7b, 0xbc,
  0xd2, 0x0b, 0x08, 0xbd, 0xee, 0xe5, 0x59, 0x3f, 0xc5, 0x43, 0xab, 0xbd,
  0x0c, 0xc6, 0x01, 0xbf, 0x00, 0x02, 0xfa, 0xbf, 0xe1, 0x9c, 0x4d, 0x40,
  0x54, 0xe0, 0xe3, 0xbf, 0x16, 0x77, 0x43, 0x3f, 0x9f, 0xcd, 0x84, 0x3e,
  0xc9, 0x03, 0xb8, 0xbe, 0x5f, 0x24, 0xa5, 0x3e, 0x8c, 0x36, 0x69, 0x3d,
  0xa8, 0x2e, 0x8c, 0x3f, 0x87, 0x34, 0xea, 0xbb, 0x80, 0x64, 0xfc, 0xbb,
  0xee, 0x2d, 0x4b, 0x3e, 0x73, 0x02, 0x9d, 0x3e, 0xca, 0x3f, 0x78, 0xbe,
  0x64, 0x88, 0xb5, 0x3b, 0xcf, 0x3d, 0x84, 0xbf, 0xde, 0x46, 0x16, 0xbe,
  0xf3, 0x21, 0x0a, 0x3e, 0x4a, 0xd2, 0x10, 0xbf, 0xaa, 0xc5, 0xa5, 0xbb,
  0x47, 0xe1, 0xe8, 0x3d, 0x16, 0x3d, 0x85, 0xbd, 0x84, 0xb8, 0x85, 0xbf,
  0x07, 0xd9, 0x9d, 0x3d, 0x03, 0xf0, 0xf5, 0xbe, 0x47, 0xbc, 0xa4, 0x3e,
  0x6f, 0xcb, 0x5b, 0xbe, 0x54, 0x3a, 0xb2, 0xbd, 0xd3, 0x7d, 0x5b, 0xbe,
  0x67, 0x47, 0x37, 0x3d, 0x87, 0xbf, 0x43, 0xbf, 0xae, 0xba, 0xa7, 0x3c,
  0x1b, 0xac, 0x22, 0x3e, 0x9c, 0x8b, 0x39, 0x3d, 0xb5, 0xee, 0x91, 0xbc,
  0x89, 0x5a, 0x55, 0x3c, 0x07, 0x54, 0x61, 0xbd, 0xb4, 0x69, 0xfd, 0x3c,
  0x5b, 0x3d, 0xef, 0xbc, 0x1c, 0xbc, 0x47, 0x3d, 0x1f, 0x80, 0x47, 0x3d,
  0x06, 0xb1, 0x98, 0xbc, 0xa7, 0x8f, 0x54, 0xbd, 0x8a, 0x76, 0x4d, 0xbd,
  0x1b, 0x6b, 0xc3, 0xbc, 0xdc, 0xca, 0x9d, 0xbe, 0xc7, 0xea, 0x3c, 0xbe,
  0xfa, 0x20, 0x6d, 0x3d, 0x1b, 0x04, 0x89, 0xbf, 0xe0, 0xc3, 0x89, 0xbf,
  0x85, 0x0d, 0xaf, 0xbf, 0xa8, 0x2e, 0x87, 0xc1, 0x28, 0x7e, 0xa1, 0xc0,
  0x75, 0xde, 0x45, 0xbf, 0xc8, 0xe4, 0xb9, 0xbd, 0x24, 0xd9, 0x08, 0xc0,
  0xfe, 0xdd, 0x3f, 0xbe, 0x69, 0xaf, 0x3c, 0x3f, 0x23, 0x34, 0x2f, 0xbf,
  0xd9, 0x0c, 0x8d, 0xbf, 0x5e, 0x76, 0x15, 0xbf, 0x49, 0x5b, 0x95, 0xbf,
  0x76, 0x9b, 0x9c, 0x3f, 0xbc, 0x70, 0x6f, 0xbf, 0x23, 0x31, 0x82, 0x3e,
  0x26, 0x13, 0xee, 0xbe, 0x5c, 0xc6, 0xd9, 0x3f, 0xc7, 0x9c, 0xc0, 0xbf,
  0x1f, 0x52, 0x97, 0x3f, 0xd2, 0x4c, 0x5e, 0xbf, 0xae, 0x7a, 0x69, 0xbf,
  0x58, 0xb2, 0x1c, 0xbe, 0x0d, 0x33, 0xa6, 0xbe, 0x38, 0xea, 0x84, 0xbe,
  0x37, 0x70, 0x47, 0xbd, 0xca, 0x6f, 0x0c, 0x3d, 0x37, 0x14, 0x05, 0x3d,
  0xc0, 0xb3, 0x23, 0x41, 0xb5, 0x6f, 0x31, 0x40, 0x76, 0x46, 0xa9, 0xbe,
  0x27, 0x4e, 0x03, 0x40, 0x1c, 0x8b, 0x4e, 0x3f, 0x6c, 0x3c, 0xce, 0xbe,
  0x09, 0xcb, 0x9e, 0xbf, 0x17, 0x53, 0x6b, 0xbf, 0x8d, 0x7b, 0x20, 0xc0,
  0x74, 0xc3, 0xa1, 0xbf, 0xd4, 0x71, 0x28, 0xbf, 0xf4, 0xa2, 0x3e, 0xbf,
  0x5b, 0x7e, 0x1c, 0x3f, 0x4f, 0xfa, 0xae, 0x3e, 0x34, 0xa2, 0x06, 0xbf,
  0xef, 0x3b, 0xb7, 0x3e, 0x17, 0xca, 0xd8, 0xbe, 0x42, 0x1e, 0x2c, 0x3f,
  0xe9, 0x4c, 0x94, 0x3e, 0x20, 0x6e, 0x20, 0xbf, 0x7f, 0x85, 0xd9, 0xbc,
  0x22, 0x89, 0x25, 0xbc, 0x87, 0x78, 0x04, 0xbe, 0x9b, 0x94, 0x7f, 0x3d,
  0x54, 0x6c, 0x57, 0xbc, 0x87, 0x15, 0x9a, 0x3d, 0x34, 0x35, 0x99, 0x40,
  0x62, 0x6e, 0x5c, 0x41, 0xf7, 0x4c, 0xcb, 0x40, 0xf4, 0x36, 0x4e, 0xc0,
  0x4c, 0xb1, 0x6a, 0x3f, 0x4e, 0x70, 0x52, 0xbf, 0xae, 0xc6, 0xc4, 0xbf,
  0x0a, 0x5c, 0x41, 0x40, 0x49, 0x30, 0x93, 0xbf, 0xb8, 0x30, 0x9f, 0xbf,
  0x3f, 0x9a, 0xd2, 0xbe, 0x2e, 0x8e, 0x7e, 0x3f, 0x9e, 0x21, 0x55, 0xbf,
  0x5e, 0x4a, 0xec, 0x3e, 0x9a, 0xda, 0x0d, 0xc0, 0x02, 0xef, 0xbf, 0xbf,
  0x92, 0x54, 0x43, 0x3f, 0xe5, 0xbb, 0x9c, 0x3f, 0x65, 0x85, 0x68, 0x3f,
  0xa3, 0x7e, 0xda, 0xbf, 0x03, 0x8e, 0xb2, 0x3c, 0xa0, 0xde, 0xd1, 0xbc,
  0x6f, 0xe3, 0x48, 0xbe, 0x94, 0x6d, 0x6c, 0x3c, 0xa7, 0x1e, 0xa8, 0xbc,
  0x9d, 0x19, 0xa9, 0x3c, 0xd9, 0x63, 0x42, 0x3d, 0x32, 0x79, 0xbb, 0xbf,
  0xbd, 0xf0, 0x76, 0xbf, 0xf3, 0x3f, 0xf8, 0xbe, 0xce, 0x76, 0x07, 0x3f,
  0x54, 0xc9, 0x15, 0x3f, 0x17, 0x0e, 0x00, 0x3e, 0x62, 0x93, 0x19, 0xbd,
  0xbb, 0x8a, 0x80, 0xbc, 0xaf, 0x79, 0x38, 0x3f, 0x63, 0xad, 0x9f, 0x3d,
  0x50, 0xca, 0x26, 0x3e, 0xe4, 0x6a, 0x87, 0x3d, 0x92, 0x48, 0x5f, 0x3d,
  0xe5, 0xac, 0x0d, 0xbe, 0xd1, 0x76, 0xa0, 0xbb, 0x18, 0x7c, 0xa6, 0xbe,
  0x21, 0xca, 0xe3, 0x3c, 0xd0, 0x9c, 0xab, 0xbc, 0xf4, 0x08, 0x16, 0x3f,
  0x34, 0xca, 0x8c, 0xbe, 0x11, 0x2f, 0x88, 0x3d, 0xc1, 0xc9, 0x3b, 0x3d,
  0xec, 0x3a, 0xa7, 0x3b, 0xda, 0xdc, 0xbf, 0xbc, 0xd1, 0x97, 0xee, 0xbf,
  0xaf, 0x4e, 0xac, 0x40, 0x67, 0xed, 0x37, 0xc0, 0xab, 0x4a, 0xca, 0xc0,
  0x8c, 0x35, 0x82, 0xbe, 0x1c, 0x87, 0x7f, 0x3f, 0xe1, 0x85, 0x8e, 0x3e,
  0x95, 0x96, 0x2e, 0x3f, 0x6d, 0x68, 0x61, 0x3f, 0xce, 0x2c, 0x0f, 0xbf,
  0xf6, 0x99, 0x0f, 0x3f, 0x9f, 0xd4, 0x16, 0xbf, 0x71, 0xdb, 0x31, 0x3f,
  0x4c, 0x91, 0x1b, 0xbd, 0xf8, 0x16, 0x12, 0xbe, 0x9b, 0x06, 0xb7, 0xbe,
  0xee, 0x2b, 0x93, 0x3e, 0x09, 0x13, 0x1e, 0x3e, 0xbf, 0x6f, 0x62, 0x3e,
  0x19, 0x9f, 0xbc, 0x3b, 0x9a, 0xa7, 0x86, 0xbd, 0x8f, 0xf6, 0xa0, 0xbd,
  0x79, 0x49, 0x1e, 0x3e, 0x52, 0xcb, 0x4c, 0x3d, 0x03, 0x17, 0x69, 0x3d,
  0xf8, 0xc3, 0x66, 0x3d, 0x16, 0xf0, 0xf5, 0x3d, 0x6d, 0x41, 0x15, 0xc1,
  0xd9, 0x7d, 0x1b, 0xc0, 0x86, 0x5e, 0x08, 0x41, 0xb4, 0x09, 0xd5, 0x3f,
  0x11, 0x21, 0xcb, 0x3f, 0x19, 0x13, 0xcc, 0xbe, 0x25, 0xe0, 0xe9, 0xbf,
  0x77, 0x48, 0xe1, 0xbf, 0x9b, 0xd2, 0x9d, 0xc0, 0xf1, 0xa2, 0xfc, 0xbe,
  0xa0, 0x86, 0x7c, 0xbf, 0xeb, 0x0c, 0xf4, 0x3e, 0xa5, 0x7f, 0x0d, 0x3d,
  0xe7, 0x9f, 0xa8, 0x3f, 0xed, 0xd2, 0xb5, 0x3e, 0x81, 0xf6, 0x9e, 0x3d,
  0x5d, 0xd1, 0x13, 0xbe, 0xd3, 0x40, 0x67, 0x3d, 0xd2, 0xe0, 0x2a, 0xbf,
  0x16, 0x8c, 0xd4, 0xbe, 0xbd, 0x85, 0x7a, 0xbd, 0xff, 0x95, 0x99, 0x3e,
  0xd5, 0xcc, 0xbe, 0xbd, 0x4b, 0x3a, 0x36, 0x3d, 0xeb, 0xf7, 0xe6, 0xbc,
  0x75, 0xa5, 0x95, 0xbd, 0x7b, 0x21, 0xab, 0xbf, 0x52, 0xff, 0xc8, 0xbf,
  0x97, 0xbe, 0x87, 0xbe, 0x2b, 0x63, 0x44, 0xbe, 0x89, 0xd4, 0x98, 0xbf,
  0x75, 0x33, 0x81, 0x3d, 0xee, 0x2e, 0x2a, 0x3f, 0x19, 0xf7, 0x41, 0xbe,
  0x32, 0x15, 0xb5, 0x3e, 0x75, 0x7f, 0x82, 0xbf, 0xd1, 0x6f, 0x00, 0x3e,
  0x97, 0xb6, 0x2a, 0xbf, 0xe0, 0xe6, 0x1d, 0xbf, 0x4d, 0x01, 0x18, 0xbf,
  0x30, 0x68, 0x7e, 0x3e, 0x1c, 0xc3, 0x34, 0xbf, 0xd7, 0xe7, 0x0a, 0xbf,
  0xb0, 0x48, 0x0f, 0xbd, 0x22, 0xd8, 0xce, 0x3e, 0x71, 0x25, 0xab, 0x3e,
  0x13, 0x9c, 0x43, 0xbe, 0x16, 0x20, 0x49, 0x3c, 0xf2, 0xd4, 0x07, 0xbe,
  0x28, 0x30, 0xad, 0xbe, 0xea, 0xbc, 0xc9, 0x3d, 0x92, 0x4e, 0x92, 0x3d,
  0xf4, 0x72, 0x0b, 0x41, 0xa3, 0xd1, 0xdf, 0xc0, 0x8b, 0xb6, 0x47, 0x41,
  0xc4, 0x05, 0x29, 0xbf, 0x47, 0xbe, 0xa5, 0xbf, 0xba, 0x01, 0xb7, 0xbf,
  0x22, 0xdf, 0xca, 0xbf, 0x7a, 0x3a, 0x0d, 0x40, 0xb9, 0xb3, 0x38, 0xc0,
  0x3d, 0x12, 0xf9, 0x3e, 0x01, 0x43, 0x49, 0x3f, 0x3b, 0x5d, 0x90, 0xbf,
  0x5c, 0x83, 0x47, 0xbe, 0xd5, 0xd8, 0x05, 0xbe, 0x15, 0x2a, 0xda, 0xbf,
  0x3a, 0xcb, 0x30, 0x3e, 0x85, 0xe6, 0xd5, 0x3f, 0x43, 0x2e, 0x77, 0x3e,
  0xba, 0xdc, 0x48, 0x40, 0xf1, 0xa6, 0xbe, 0xc0, 0x93, 0x9f, 0xb8, 0xbd,
  0xbb, 0xab, 0x86, 0xbd, 0xce, 0xbc, 0xbd, 0x3d, 0xc1, 0xb0, 0xc8, 0xbc,
  0x53, 0xd2, 0x47, 0x3c, 0xc7, 0x5a, 0xd1, 0xbd, 0x21, 0x57, 0x49, 0x3f,
  0xa7, 0x01, 0x10, 0x40, 0x68, 0xdd, 0x5d, 0xc0, 0x5b, 0xd5, 0x09, 0xbf,
  0xfd, 0xa1, 0xb3, 0xbe, 0x5f, 0x8f, 0x1d, 0x3f, 0xf2, 0x34, 0x54, 0xbf,
  0xf6, 0xaf, 0x00, 0x3f, 0x9b, 0x4a, 0x10, 0x3e, 0x86, 0xbf, 0x0d, 0xbe,
  0xcf, 0xaa, 0xe4, 0xbe, 0xce, 0x7a, 0xfe, 0x3c, 0x7e, 0x9e, 0x16, 0xbe,
  0x60, 0xb1, 0x31, 0x3e, 0x68, 0x8a, 0x62, 0xbe, 0xed, 0x1a, 0xa0, 0xbd,
  0x4c, 0x99, 0x68, 0xbe, 0x2c, 0xe9, 0xc2, 0x3d, 0x04, 0xc5, 0xe8, 0x3e,
  0xbb, 0x6b, 0xdc, 0x3e, 0x72, 0x97, 0xec, 0xbd, 0x57, 0xba, 0x5e, 0xbe,
  0x0a, 0x47, 0x51, 0x3a, 0x0f, 0xdf, 0x1b, 0x3d, 0x6c, 0x8e, 0x05, 0xbe,
  0xd6, 0x42, 0x07, 0x3d, 0x87, 0x92, 0xcd, 0xbe, 0xd7, 0xaf, 0xa5, 0x3f,
  0x1e, 0x4d, 0x8b, 0xbf, 0xb9, 0x1d, 0x58, 0xbe, 0x49, 0x4c, 0x81, 0xbd,
  0xaa, 0xdb, 0x73, 0xbf, 0x0e, 0x35, 0xbf, 0xbf, 0x8b, 0xf2, 0x81, 0x3d,
  0x83, 0x51, 0x63, 0xbc, 0xa3, 0x62, 0xcf, 0x3f, 0x7d, 0x2d, 0xd5, 0xbd,
  0x68, 0xa0, 0xf3, 0x3d, 0xe4, 0x04, 0x6e, 0xbd, 0x24, 0xd3, 0x82, 0x3e,
  0xab, 0xea, 0xa4, 0xbd, 0x5c, 0x90, 0x49, 0xbe, 0xe0, 0x4a, 0x95, 0xbd,
  0xb2, 0xad, 0xdf, 0x3c, 0x4a, 0xc8, 0xe2, 0xbc, 0xaf, 0xc7, 0x44, 0x3e,
  0x67, 0x0b, 0xbc, 0xbd, 0xed, 0x4b, 0x35, 0xbd, 0xc1, 0xa6, 0x6b, 0x3d,
  0xd5, 0x8b, 0xe1, 0x3f, 0xc2, 0x1f, 0x07, 0x3d, 0x89, 0x73, 0x08, 0x3e,
  0x4b, 0x33, 0xa2, 0x40, 0x59, 0x38, 0x8d, 0xc1, 0xa0, 0xb7, 0x02, 0x41,
  0xff, 0xa5, 0xef, 0xc0, 0x02, 0x4a, 0x4e, 0xbe, 0xec, 0x98, 0x85, 0xbe,
  0xbc, 0x94, 0x97, 0xbe, 0x04, 0x8b, 0xec, 0x3f, 0x6d, 0x5e, 0x43, 0xbf,
  0xcc, 0xf2, 0x2e, 0xbf, 0x05, 0xfd, 0xe5, 0x3e, 0x5a, 0x1b, 0x8b, 0x3e,
  0x4e, 0x59, 0x8c, 0xbf, 0xf8, 0xd4, 0x07, 0x3f, 0x07, 0x0d, 0x9a, 0xbd,
  0xca, 0x27, 0x24, 0x3f, 0x95, 0xe4, 0x7c, 0xbf, 0x3c, 0xef, 0x79, 0xbd,
  0x89, 0x22, 0xbb, 0xbe, 0x41, 0x40, 0xc8, 0xbf, 0xf4, 0x8c, 0x41, 0x3e,
  0x43, 0xf5, 0x04, 0xbe, 0x10, 0xf7, 0x73, 0xbd, 0x28, 0xb5, 0x03, 0x3c,
  0x4f, 0xe0, 0x94, 0xbb, 0x6e, 0xa8, 0xef, 0x3d, 0xa2, 0xa3, 0x0a, 0x3f,
  0xc3, 0xe4, 0xa3, 0xbf, 0x5b, 0x7a, 0xdb, 0x3f, 0xb1, 0x66, 0x01, 0xbf,
  0xfd, 0x6d, 0xca, 0x3e, 0xee, 0x1c, 0xb6, 0x3e, 0xa6, 0xd9, 0xad, 0xbe,
  0xb8, 0x40, 0x94, 0xbe, 0x48, 0x1b, 0x16, 0xbe, 0xc2, 0xc1, 0x32, 0x3f,
  0x39, 0x22, 0x6e, 0x3f, 0xaf, 0xb8, 0xda, 0xbe, 0x52, 0x5e, 0xd9, 0x3e,
  0xd5, 0x41, 0x0d, 0xbf, 0xb4, 0x1d, 0xca, 0x3e, 0xbb, 0x2d, 0x41, 0xbe,
  0x1d, 0x4f, 0x5b, 0xbe, 0x94, 0x2e, 0xed, 0xbe, 0xc5, 0x15, 0xd4, 0xbd,
  0xea, 0xc1, 0x0f, 0x3e, 0xca, 0xcb, 0x01, 0x3d, 0xc1, 0xa3, 0xd1, 0xbc,
  0x96, 0x74, 0x14, 0x3e, 0xab, 0x2d, 0xec, 0x3f, 0xb6, 0x6e, 0x3f, 0x3f,
  0xe6, 0x8f, 0x9f, 0xbe, 0x39, 0x25, 0x96, 0x3f, 0xff, 0x70, 0x13, 0x40,
  0xd5, 0x18, 0x6e, 0x40, 0xda, 0x38, 0xf6, 0xbf, 0xb9, 0x21, 0xba, 0x3f,
  0x6a, 0x5a, 0x5e, 0x3e, 0x14, 0x6c, 0x83, 0xbf, 0x26, 0x2f, 0x64, 0xbf,
  0x80, 0x86, 0x89, 0x3e, 0x51, 0xa6, 0x19, 0xbd, 0xfb, 0xd5, 0x9e, 0x3f,
  0x24, 0x8e, 0xc0, 0xbf, 0xb0, 0x9b, 0xd0, 0x3e, 0x35, 0xac, 0xbe, 0xbf,
  0xde, 0x8a, 0x8c, 0xbe, 0xa2, 0xdb, 0x0d, 0xbd, 0x6d, 0x17, 0x9d, 0x3f,
  0xea, 0x59, 0x63, 0xbe, 0xad, 0xdb, 0x77, 0xbe, 0x28, 0x05, 0x9b, 0xbf,
  0xd6, 0xba, 0x13, 0xbe, 0xfb, 0x41, 0xac, 0xbe, 0x60, 0xb6, 0x8a, 0xbe,
  0xb5, 0x4b, 0x5d, 0xbe, 0xf3, 0xb6, 0x0d, 0x3e, 0x9f, 0x52, 0xb5, 0xba,
  0xea, 0x8d, 0x88, 0x3f, 0x43, 0x74, 0x20, 0xbe, 0x38, 0xbb, 0x65, 0x3f,
  0x29, 0x28, 0x01, 0xbf, 0x33, 0x2b, 0xbe, 0x3d, 0x84, 0xbe, 0x6d, 0xbf,
  0xe9, 0x0f, 0xe6, 0xbf, 0x92, 0x68, 0xc2, 0x3d, 0x08, 0x4b, 0x14, 0xbe,
  0xa1, 0xc1, 0xd6, 0x3f, 0x69, 0xf7, 0xee, 0x3e, 0x30, 0x5c, 0x0e, 0xbe,
  0xd2, 0xe4, 0xe4, 0x3e, 0x28, 0x72, 0x2d, 0x3e, 0x99, 0x0d, 0x06, 0xbd,
  0xa7, 0xb8, 0xb8, 0x3d, 0x40, 0xb9, 0x44, 0x3e, 0x1e, 0xb2, 0x3e, 0x3e,
  0x0d, 0xc9, 0x0b, 0xbe, 0xa4, 0x5c, 0xb3, 0x3d, 0x56, 0xd3, 0xaf, 0x3e,
  0xb8, 0xec, 0x95, 0xbd, 0xb5, 0x94, 0x24, 0xbd, 0x14, 0x8e, 0x9b, 0x3d,
  0x3d, 0x79, 0xf6, 0xbf, 0xca, 0x64, 0x0d, 0x3e, 0x87, 0x7a, 0xcf, 0x3f,
  0x6b, 0x00, 0xb4, 0xbf, 0x69, 0x6c, 0x79, 0xc0, 0x39, 0xeb, 0x5d, 0x3e,
  0x5b, 0x39, 0xbf, 0xbf, 0x56, 0xf0, 0x7c, 0x3e, 0x9c, 0xe3, 0x8e, 0x3f,
  0x0e, 0x49, 0x8a, 0x3e, 0x5d, 0x79, 0x9d, 0x3f, 0x72, 0x1e, 0x53, 0xbf,
  0x43, 0xf3, 0x8a, 0xbf, 0x46, 0x50, 0x9b, 0xbc, 0x9f, 0x89, 0x04, 0xbf,
  0xbd, 0x17, 0x81, 0xbf, 0xe8, 0xa3, 0xb4, 0x3c, 0xb7, 0x10, 0x40, 0xbe,
  0xb8, 0xb0, 0xae, 0x3d, 0x0b, 0xb9, 0x97, 0x3f, 0x23, 0xe5, 0xb1, 0x3b,
  0x4e, 0x23, 0x8c, 0x3e, 0xf5, 0x74, 0x93, 0x3d, 0xad, 0x5c, 0xe4, 0xbd,
  0x16, 0xb6, 0x54, 0x3e, 0x6b, 0xf5, 0x9b, 0xbb, 0x66, 0xa0, 0x0c, 0xbe,
  0xf5, 0xe2, 0x2c, 0x3c, 0xaa, 0x84, 0xf6, 0xbe, 0x34, 0x0f, 0x75, 0xbe,
  0xec, 0x90, 0x41, 0x3e, 0xe1, 0x6d, 0xb1, 0x3d, 0xa9, 0x4c, 0xaa, 0xbc,
  0xf0, 0x8c, 0x26, 0xbe, 0x16, 0xc5, 0x62, 0x3c, 0x7a, 0xd6, 0x68, 0xbe,
  0x30, 0x1a, 0x8c, 0xbd, 0x27, 0xf2, 0xc7, 0xbc, 0xa6, 0xd6, 0x33, 0x3d,
  0x45, 0x68, 0xa1, 0xbc, 0x78, 0x3c, 0x48, 0x3d, 0x2e, 0xa8, 0x55, 0xbd,
  0x37, 0x67, 0xd0, 0xbd, 0x67, 0x66, 0x80, 0xbd, 0xa1, 0x26, 0xa6, 0x3d,
  0xad, 0xaf, 0xa4, 0x3d, 0xd0, 0x66, 0xae, 0x3d, 0x5e, 0xc6, 0x83, 0xbd,
  0xbb, 0x7d, 0x68, 0xbc, 0x88, 0x46, 0x01, 0xbd, 0xa5, 0x58, 0xfa, 0xbd,
  0x17, 0x5e, 0x91, 0x3f, 0x34, 0xe0, 0x8d, 0x3f, 0x7b, 0x5a, 0xb8, 0xbf,
  0xba, 0x36, 0x08, 0x3f, 0xd1, 0xd2, 0x55, 0x3f, 0x45, 0x19, 0xb4, 0xbe,
  0x9c, 0xf1, 0xb3, 0xbe, 0xf5, 0xc5, 0x28, 0xbf, 0x6c, 0x83, 0x87, 0x3e,
  0x12, 0xaf, 0x45, 0xbd, 0xb6, 0xe7, 0x1b, 0xbe, 0x90, 0x50, 0x4d, 0x3f,
  0xbe, 0x9f, 0xc1, 0xbe, 0x07, 0x1b, 0xdb, 0xbe, 0xb8, 0x78, 0x5d, 0xbd,
  0x60, 0x51, 0xff, 0xbd, 0x19, 0x2b, 0x98, 0x3e, 0xf1, 0x00, 0x83, 0xbf,
  0x8b, 0x8e, 0x1d, 0x3f, 0x2b, 0x3a, 0xbe, 0x3e, 0x78, 0xd7, 0x19, 0x40,
  0xd6, 0xab, 0xcc, 0xbf, 0x97, 0x55, 0x8c, 0xbf, 0xc6, 0x97, 0x60, 0xbe,
  0x29, 0x40, 0x06, 0xbc, 0x3c, 0x2c, 0xb0, 0xbd, 0x32, 0x16, 0x94, 0xbb,
  0x7a, 0x7a, 0x41, 0xbd, 0x81, 0x27, 0x7d, 0x3d, 0x28, 0x9d, 0x12, 0x3e,
  0x31, 0x53, 0x3d, 0x3f, 0x50, 0x7e, 0x5f, 0x40, 0x10, 0x3f, 0xbe, 0xbf,
  0x47, 0xc7, 0x84, 0x3f, 0x30, 0xbc, 0x74, 0x3e, 0x81, 0xfe, 0x5a, 0xbf,
  0x6f, 0xb0, 0xcd, 0x3d, 0x74, 0x50, 0x02, 0xbe, 0x4e, 0x73, 0x85, 0x3f,
  0x05, 0x98, 0x77, 0x3f, 0x26, 0xe8, 0xfc, 0xbe, 0x69, 0x2f, 0x40, 0x3f,
  0xe6, 0xf8, 0xcd, 0xbe, 0x93, 0x0d, 0x02, 0xbd, 0xeb, 0x84, 0xc2, 0x3e,
  0x13, 0x3f, 0x99, 0xbe, 0x1a, 0x1b, 0x37, 0xbd, 0x6c, 0x8b, 0x34, 0xbd,
  0x18, 0x12, 0xc1, 0x3d, 0x6f, 0x7b, 0x8f, 0xbc, 0x6f, 0x13, 0x24, 0x3d,
  0x9e, 0x50, 0xd7, 0xbc, 0xcf, 0xb3, 0x98, 0xbe, 0xa1, 0xb0, 0xf8, 0xbf,
  0x60, 0x9e, 0x16, 0x3d, 0x59, 0xd9, 0x66, 0xc0, 0xc7, 0x6e, 0x9b, 0x3e,
  0xbb, 0x5a, 0x2e, 0xc0, 0x70, 0x3c, 0x48, 0xbf, 0x28, 0xb4, 0x99, 0x3f,
  0x3c, 0xaf, 0x41, 0x3f, 0x2e, 0xbc, 0x07, 0xc0, 0xe8, 0x9b, 0x0c, 0x40,
  0x42, 0xab, 0xf9, 0xbe, 0x21, 0x37, 0xb2, 0x3f, 0xd7, 0x69, 0x13, 0x3f,
  0xab, 0x89, 0x22, 0x3f, 0x26, 0x06, 0xce, 0x3e, 0xa9, 0x94, 0x36, 0x3f,
  0x61, 0x95, 0xbc, 0x3f, 0x4e, 0xe1, 0x91, 0x3f, 0xd5, 0xad, 0x08, 0xc0,
  0x80, 0xdf, 0x5c, 0xc0, 0x1e, 0xb5, 0x6e, 0xc0, 0xb0, 0xa7, 0x98, 0x40,
  0x7b, 0x7c, 0x8f, 0x3d, 0x3b, 0x77, 0x33, 0xbe, 0x9b, 0xab, 0x37, 0xbd,
  0x93, 0xed, 0xc1, 0x3d, 0x5e, 0x6f, 0x93, 0xbb, 0x8e, 0xf6, 0x2c, 0x3b,
  0xd5, 0x99, 0x14, 0xbf, 0x92, 0x04, 0x94, 0xc1, 0xe7, 0xdc, 0x81, 0x40,
  0x11, 0x64, 0xb9, 0x3f, 0x9d, 0xbc, 0xac, 0x3f, 0x9d, 0x93, 0x37, 0x3f,
  0xbe, 0xfe, 0x83, 0xbf, 0xa9, 0x2f, 0x3b, 0x40, 0x18, 0xe6, 0xc1, 0xc0,
  0x9c, 0xe1, 0x3d, 0xbe, 0x34, 0xe0, 0x8c, 0x3e, 0x5b, 0xe5, 0x0d, 0x3e,
  0x0e, 0xef, 0x30, 0x3f, 0xff, 0xd2, 0x9c, 0x3f, 0x37, 0x30, 0x5c, 0xbe,
  0x34, 0xc4, 0x51, 0x3f, 0x1b, 0x70, 0x0a, 0xbf, 0x90, 0x68, 0xff, 0x3f,
  0xe4, 0x0c, 0xe4, 0x3c, 0x47, 0xbb, 0x06, 0x3f, 0xb6, 0x3c, 0x88, 0x3d,
  0x41, 0xef, 0x31, 0xbe, 0xfc, 0x5a, 0x2f, 0xbe, 0x6b, 0x3d, 0xb4, 0x3b,
  0x0b, 0x9b, 0x41, 0xbc, 0x45, 0xd2, 0xdb, 0x3b, 0xbe, 0x9a, 0xe9, 0xbe,
  0xf8, 0xee, 0x12, 0xc0, 0xbf, 0xc4, 0x4d, 0x40, 0x05, 0x08, 0xac, 0x3e,
  0x5c, 0x6f, 0xd6, 0x3e, 0x26, 0x40, 0x5b, 0x3e, 0x37, 0x70, 0xfb, 0xbe,
  0x6f, 0x21, 0x5d, 0x3e, 0x67, 0x7f, 0xd8, 0xbe, 0x55, 0x4e, 0xd8, 0x3e,
  0x2c, 0xb9, 0xc1, 0x3e, 0x69, 0x8d, 0xb5, 0xbe, 0x26, 0x4c, 0x1b, 0xbf,
  0x22, 0xf1, 0x41, 0x3e, 0x11, 0xb2, 0x95, 0x3d, 0x56, 0x1c, 0xb4, 0x3b,
  0x73, 0x8f, 0xd4, 0x3f, 0x3e, 0x06, 0x41, 0x3f, 0x73, 0xa2, 0x1f, 0x3f,
  0x6f, 0x31, 0x37, 0xbf, 0xef, 0x2d, 0xac, 0x3c, 0xc8, 0x26, 0x0a, 0x3e,
  0xf8, 0x0d, 0x42, 0x3d, 0x60, 0x1c, 0xd6, 0xbc, 0x69, 0x12, 0x78, 0x3c,
  0xfc, 0x23, 0x3b, 0x3d, 0x5c, 0x9e, 0xd4, 0x3e, 0x61, 0x57, 0xc8, 0xbf,
  0xf1, 0x24, 0xc4, 0x3f, 0x81, 0xab, 0xe1, 0xbd, 0x19, 0xf4, 0xc1, 0xbf,
  0x2c, 0x50, 0x1b, 0xbe, 0xd4, 0xc6, 0xbe, 0xbe, 0x9d, 0x12, 0xc1, 0xbf,
  0xae, 0x6f, 0x5a, 0xbf, 0xd9, 0xf9, 0x87, 0xbe, 0x60, 0xb9, 0x2d, 0xbd,
  0xbd, 0xba, 0x7b, 0xbf, 0x9d, 0x8b, 0x51, 0xbf, 0xf3, 0x01, 0x85, 0xbf,
  0x0d, 0xbf, 0x6f, 0x3e, 0xb4, 0xa3, 0x81, 0x3e, 0x8c, 0x05, 0x1d, 0xbf,
  0x49, 0x1b, 0x64, 0x3e, 0xcc, 0x8b, 0x22, 0xbe, 0xca, 0xd4, 0xd6, 0xbe,
  0xf5, 0xc5, 0x64, 0x3e, 0x67, 0x85, 0x96, 0xbd, 0x25, 0xa7, 0x88, 0xbb,
  0x9f, 0xa4, 0x27, 0xbd, 0x8b, 0xb1, 0x78, 0xbd, 0x10, 0x70, 0x0e, 0xbd,
  0x21, 0x6d, 0x64, 0xbf, 0xac, 0x0d, 0x99, 0xc0, 0xa2, 0x6d, 0xbd, 0xbf,
  0x61, 0x9d, 0x57, 0x3f, 0x2a, 0xc7, 0x93, 0xbf, 0xaf, 0x10, 0x6b, 0x3e,
  0xec, 0xd4, 0x9f, 0xbe, 0xe7, 0xd0, 0x86, 0x3e, 0x0e, 0x33, 0x5a, 0xbf,
  0x91, 0x7f, 0x3f, 0x3f, 0x1c, 0x40, 0x92, 0x3e, 0x3e, 0xbf, 0x98, 0xbe,
  0xbc, 0x83, 0x00, 0x3f, 0xf1, 0x90, 0x1e, 0xbe, 0x4d, 0xb7, 0x8f, 0xbd,
  0x4d, 0x2d, 0x7b, 0xbe, 0xa7, 0x5f, 0x26, 0xbd, 0xa6, 0x13, 0x82, 0x3e,
  0xc5, 0xd3, 0x9e, 0x3e, 0x6d, 0xbd, 0xd6, 0xbd, 0xf3, 0xd3, 0x0d, 0x3d,
  0x30, 0x35, 0x1e, 0xbd, 0xc4, 0xca, 0x6d, 0xbd, 0xdd, 0x0c, 0x56, 0x3f,
  0xc5, 0x6f, 0xf1, 0x3e, 0x0e, 0x06, 0x8c, 0x3e, 0xb0, 0x19, 0x67, 0x3f,
  0xed, 0x0f, 0x5d, 0x40, 0xc8, 0x70, 0x82, 0x3e, 0x8b, 0x72, 0x36, 0xbf,
  0x5b, 0x64, 0xd2, 0x3f, 0x63, 0x92, 0xb6, 0xbe, 0xf7, 0xef, 0xa8, 0xbf,
  0x9c, 0x0e, 0xb7, 0xbe, 0x3d, 0x11, 0xf1, 0x3e, 0xde, 0xfe, 0x9d, 0x3e,
  0xd7, 0x14, 0x0c, 0x3f, 0x84, 0x51, 0xaf, 0xbe, 0x61, 0x07, 0x05, 0x3f,
  0x79, 0x39, 0x28, 0x3f, 0xcd, 0x66, 0xbf, 0x3e, 0xca, 0x87, 0xc8, 0x3f,
  0x73, 0x31, 0x18, 0xc0, 0x5d, 0xfe, 0x2e, 0x3c, 0x9a, 0xd7, 0x8e, 0xbf,
  0xa6, 0x01, 0xc1, 0x3e, 0xb4, 0x96, 0xa2, 0x3d, 0x52, 0xfb, 0xb5, 0x3c,
  0x88, 0xcf, 0x33, 0x3e, 0x45, 0x93, 0xe1, 0xbc, 0x1a, 0x9e, 0x86, 0xbb,
  0x31, 0xc4, 0x58, 0x3e, 0xf9, 0xf1, 0x19, 0xc1, 0xa2, 0x62, 0x24, 0x40,
  0xd0, 0xf1, 0x3a, 0xc1, 0x7f, 0x1e, 0x47, 0xbf, 0x29, 0x7a, 0x2e, 0xbf,
  0xe9, 0x0f, 0x06, 0x3e, 0xe1, 0x0e, 0x39, 0xbf, 0x66, 0x04, 0xcb, 0xbf,
  0x2f, 0x4f, 0x2a, 0x3e, 0x1a, 0x16, 0xef, 0xbf, 0x7b, 0x18, 0x1c, 0x3e,
  0xcd, 0x1e, 0x31, 0xbf, 0x37, 0x9c, 0x92, 0xbf, 0xc1, 0xd4, 0x5a, 0x3e,
  0xf4, 0xbf, 0x5a, 0x3f, 0x08, 0x5d, 0xa6, 0xbe, 0x2f, 0x20, 0x7e, 0xbe,
  0x1d, 0xa4, 0x3a, 0xbf, 0x2f, 0xc7, 0x5d, 0xbf, 0xef, 0x6e, 0xac, 0x3f,
  0xfc, 0x9c, 0x9d, 0x3d, 0x9c, 0x99, 0xfd, 0x39, 0x86, 0x13, 0x29, 0x3e,
  0xb0, 0xf5, 0x81, 0xbc, 0x07, 0xa2, 0xa3, 0xbd, 0x40, 0x24, 0x90, 0x3d,
  0x6b, 0xfe, 0xf5, 0x3e, 0xe2, 0x0f, 0xa5, 0xbd, 0x8a, 0xda, 0xda, 0x3f,
  0x71, 0xf0, 0x89, 0x3f, 0x28, 0xab, 0xf7, 0xbe, 0x51, 0xb3, 0x3b, 0xbf,
  0x3c, 0x65, 0x09, 0xbf, 0xa5, 0xb1, 0x31, 0x3f, 0x51, 0x08, 0x90, 0xbf,
  0xd7, 0x58, 0x3f, 0x3f, 0xc0, 0x04, 0x51, 0x40, 0x02, 0x14, 0x98, 0xbf,
  0x2c, 0x3f, 0xea, 0x3f, 0x4f, 0x50, 0x92, 0xbf, 0x6c, 0x99, 0x9b, 0xbe,
  0x4e, 0x4a, 0x20, 0xbe, 0x98, 0xd8, 0x29, 0x3e, 0x50, 0xa1, 0x30, 0x3e,
  0x9b, 0x11, 0xa2, 0x3d, 0x32, 0xba, 0xf8, 0xbc, 0x87, 0x99, 0x8c, 0x3d,
  0xeb, 0xf3, 0xa0, 0x3d, 0x25, 0x94, 0xc6, 0xbc, 0xc2, 0xca, 0x8e, 0x3e,
  0x36, 0x48, 0x2c, 0xbe, 0xa3, 0x51, 0xad, 0xbe, 0x95, 0xb8, 0x82, 0x3f,
  0xfe, 0x94, 0xbb, 0xbf, 0x74, 0x7d, 0x27, 0xc0, 0x9c, 0x10, 0x8e, 0xbe,
  0x4d, 0x36, 0xeb, 0x3d, 0x71, 0x90, 0x9a, 0x3f, 0xde, 0xad, 0x69, 0xbf,
  0x61, 0xed, 0x26, 0x3f, 0xe4, 0x61, 0xa5, 0xbe, 0x41, 0x4b, 0xb3, 0x3f,
  0x97, 0xce, 0x4a, 0xbf, 0x52, 0x14, 0xe0, 0x3e, 0x46, 0xc7, 0xeb, 0xbe,
  0xfd, 0x9a, 0xa9, 0x3e, 0xe7, 0xd0, 0x55, 0x3d, 0xd5, 0x58, 0x47, 0x3d,
  0x64, 0xfe, 0xc1, 0xbd, 0x7b, 0x10, 0xc8, 0x3d, 0x33, 0x6b, 0x21, 0xbd,
  0x3c, 0x66, 0x10, 0x3e, 0x76, 0x93, 0x3a, 0xbb, 0xe7, 0x4e, 0x11, 0x3e,
  0xc4, 0x66, 0x02, 0x3e, 0x7d, 0xa4, 0xd4, 0xbf, 0x69, 0xd7, 0xce, 0x3f,
  0x0e, 0xdb, 0xa3, 0x3e, 0xd7, 0xf1, 0xdd, 0xbf, 0x14, 0xb5, 0x67, 0x40,
  0xc5, 0x3a, 0x99, 0x3e, 0xe1, 0xd8, 0xa6, 0x3f, 0xd2, 0x63, 0x67, 0xbf,
  0xf2, 0x68, 0xd3, 0xbe, 0xc2, 0x9b, 0x9e, 0xbf, 0x1a, 0x0b, 0xe1, 0x3e,
  0x5c, 0x0f, 0x8a, 0xbf, 0xe3, 0x12, 0x67, 0xbf, 0xf3, 0x7f, 0x20, 0xbf,
  0x3b, 0xfe, 0x90, 0xbf, 0x47, 0xc5, 0xf0, 0xbe, 0x69, 0x8b, 0xc8, 0x3f,
  0x99, 0xef, 0xc0, 0x3f, 0x78, 0x0e, 0x3b, 0xbf, 0x10, 0xa1, 0xae, 0xbe,
  0x18, 0x73, 0x56, 0xbe, 0x15, 0x21, 0x7b, 0x3f, 0x01, 0x32, 0x99, 0xbf,
  0xd9, 0xf4, 0x80, 0x3d, 0xe2, 0xb1, 0x38, 0x3e, 0x8b, 0xe6, 0x85, 0xbd,
  0xdc, 0xe9, 0x86, 0xbd, 0x6e, 0xe1, 0xe0, 0xbd, 0xa4, 0xc3, 0x98, 0x3c,
  0x2e, 0xed, 0x10, 0xc1, 0xb0, 0xe8, 0xeb, 0x3f, 0x7c, 0xbd, 0xa0, 0xbe,
  0xf7, 0x91, 0xc8, 0xbc, 0x20, 0x5b, 0x69, 0xc0, 0x36, 0xb9, 0x01, 0xbe,
  0x3b, 0x0d, 0xcb, 0x3f, 0x9f, 0x30, 0x3b, 0xc0, 0x17, 0x1f, 0xaf, 0xbd,
  0xbf, 0xc1, 0x11, 0xbe, 0xea, 0x0e, 0x0b, 0xbf, 0x3c, 0xbd, 0x2e, 0x3e,
  0x59, 0x36, 0x58, 0x3e, 0x2e, 0x15, 0xb3, 0x3c, 0xbe, 0x11, 0x3f, 0xbe,
  0x14, 0x7c, 0x69, 0xbe, 0xd8, 0x68, 0xb8, 0xbf, 0xb8, 0x74, 0x14, 0x3f,
  0xb5, 0x6f, 0xcc, 0xbe, 0x80, 0x23, 0x58, 0x3f, 0x85, 0x50, 0x4a, 0xbd,
  0xfa, 0xb1, 0x03, 0x3e, 0xe6, 0xf6, 0x05, 0x3e, 0x31, 0xc1, 0xb5, 0x3d,
  0xd9, 0x6e, 0xc8, 0x3b, 0xfc, 0x00, 0x8d, 0xbd, 0x07, 0xa5, 0x01, 0xbf,
  0xf5, 0x7c, 0xf8, 0xbf, 0x7e, 0x45, 0xb0, 0xbf, 0x79, 0xdc, 0x58, 0xbe,
  0xbe, 0x49, 0xbb, 0x3d, 0xc4, 0xb1, 0x32, 0xbd, 0xf7, 0x1d, 0x46, 0xbe,
  0xcb, 0x3f, 0xa0, 0xbe, 0x0c, 0xe7, 0xd8, 0x3d, 0x5d, 0xbe, 0x4e, 0x3d,
  0xd0, 0x9e, 0x96, 0xbd, 0xc5, 0x67, 0xe3, 0x3d, 0x80, 0x0d, 0x5b, 0x3e,
  0xc1, 0xcd, 0x1b, 0xbf, 0x53, 0x29, 0x50, 0xbd, 0x20, 0xa3, 0xb3, 0xbe,
  0xc6, 0x20, 0xfd, 0x3d, 0x94, 0x92, 0x69, 0x3b, 0xc3, 0xec, 0x0e, 0x3e,
  0xab, 0xfa, 0x09, 0xbe, 0x7a, 0x5f, 0x16, 0x3d, 0x24, 0xed, 0xce, 0x3d,
  0xab, 0x2d, 0x8b, 0xbc, 0x58, 0xb3, 0x75, 0x3d, 0x01, 0x75, 0x60, 0x3d,
  0x7c, 0x45, 0x96, 0xbf, 0xc2, 0x4c, 0x2e, 0x40, 0x82, 0x58, 0xec, 0xbf,
  0x01, 0xf0, 0x38, 0xbf, 0xa7, 0xc4, 0x8e, 0x3f, 0x9f, 0x82, 0x07, 0x40,
  0xae, 0xbd, 0x6d, 0xbe, 0x42, 0x0d, 0x68, 0xbf, 0x32, 0xe9, 0x2c, 0xbf,
  0xe7, 0x70, 0xa2, 0x3f, 0xa6, 0x0d, 0x8c, 0xbf, 0x98, 0x81, 0xf0, 0xbe,
  0xac, 0xae, 0x27, 0xbe, 0x76, 0x94, 0xa4, 0xbe, 0x1f, 0xc0, 0x94, 0xbf,
  0xf3, 0x1c, 0x28, 0xbd, 0xe7, 0x8a, 0x84, 0x3e, 0xf3, 0x68, 0x76, 0x3f,
  0x6d, 0x10, 0xa0, 0x3f, 0xd7, 0x48, 0xd8, 0x3e, 0x85, 0xb0, 0xf5, 0x3e,
  0xd1, 0xf9, 0xbf, 0x3b, 0xf0, 0xf4, 0xb0, 0x3d, 0xa7, 0x13, 0x0e, 0xbe,
  0x75, 0x3b, 0x02, 0x3d, 0x18, 0x91, 0x56, 0x3d, 0x98, 0xd2, 0x1c, 0xbd,
  0xe0, 0xd2, 0x0b, 0x40, 0x2d, 0x3f, 0x3f, 0xc0, 0x9e, 0xad, 0xe6, 0x40,
  0x77, 0x23, 0x9f, 0x3f, 0x12, 0x4e, 0xd9, 0xc0, 0xa2, 0xaa, 0x4d, 0xbf,
  0x1f, 0x9a, 0xed, 0xbe, 0xf5, 0xaa, 0xe2, 0xc0, 0xdb, 0x9c, 0x65, 0xc0,
  0x2a, 0x8f, 0x53, 0xbf, 0x69, 0xa4, 0x68, 0xbf, 0xe4, 0x0d, 0xc8, 0xbc,
  0x12, 0xab, 0x08, 0x3f, 0x79, 0x25, 0xae, 0xbe, 0xd5, 0x07, 0x6d, 0x3f,
  0x42, 0x26, 0x57, 0xbe, 0x27, 0x2c, 0x38, 0x3d, 0x19, 0x8c, 0xf9, 0xbd,
  0xb8, 0xd1, 0x1e, 0xc0, 0x67, 0x99, 0xf4, 0xbf, 0x5c, 0x51, 0x35, 0x3e,
  0x1d, 0xa8, 0x94, 0xbd, 0x77, 0x05, 0x9d, 0x3e, 0x63, 0x63, 0x51, 0x3c,
  0xc5, 0xf2, 0xa1, 0xbc, 0x2d, 0x4c, 0x2c, 0x3e, 0xd2, 0x7a, 0xb8, 0xbc,
  0xc4, 0x57, 0x4c, 0x3c, 0x5b, 0xed, 0xb2, 0xbc, 0xc5, 0x74, 0xb2, 0xbd,
  0x70, 0x35, 0x4f, 0xbd, 0xf5, 0xea, 0x1e, 0xbd, 0x53, 0xde, 0x29, 0xbe,
  0xcf, 0x10, 0xdf, 0x3a, 0xa5, 0xdc, 0x5e, 0xbd, 0x5e, 0xa0, 0xed, 0xbc,
  0xf0, 0xb3, 0xa3, 0x3c, 0x79, 0x06, 0x8f, 0xbd, 0x70, 0x5b, 0xad, 0x3b,
  0x40, 0x47, 0x04, 0xbe, 0x77, 0x58, 0xee, 0xbc, 0x57, 0xbe, 0x19, 0xbe,
  0xbe, 0x4c, 0x55, 0x3c, 0xb3, 0x26, 0x96, 0x3d, 0x05, 0x7b, 0x45, 0x3c,
  0x80, 0x8c, 0x92, 0xbc, 0x98, 0x10, 0x67, 0xbd, 0x61, 0xb8, 0xcc, 0x3b,
  0x51, 0x94, 0x6d, 0x3c, 0x16, 0x7a, 0x2e, 0xbe, 0x80, 0x6b, 0x8e, 0xbc,
  0xf8, 0x18, 0x07, 0xbd, 0x53, 0x19, 0x40, 0xbd, 0x13, 0x2b, 0xc0, 0xbc,
  0x5f, 0x7a, 0x1f, 0xbd, 0x59, 0xba, 0x3c, 0xbd, 0x64, 0xb7, 0x76, 0xbc,
  0xd3, 0x24, 0xc6, 0xbc, 0x1f, 0x80, 0x89, 0x3d, 0x94, 0x08, 0xd0, 0x3c,
  0xc8, 0xf2, 0x1c, 0xbd, 0xf2, 0x8f, 0x6d, 0x3a, 0x57, 0x5c, 0x41, 0xbb,
  0xfc, 0x03, 0xda, 0x3c, 0x74, 0xde, 0x27, 0xbc, 0x5c, 0x4d, 0x69, 0xbd,
  0x8f, 0xc0, 0x4c, 0xbd, 0x9e, 0x95, 0xa2, 0x3c, 0xec, 0xdd, 0xf4, 0x3c,
  0x5a, 0x03, 0x5c, 0xbc, 0x99, 0x9d, 0x05, 0xbe, 0x17, 0x83, 0x34, 0xbe,
  0xe5, 0x0b, 0x61, 0x3d, 0x2f, 0x8b, 0x22, 0xbc, 0x1c, 0x97, 0x53, 0xbc,
  0xf6, 0xea, 0x20, 0x3d, 0x31, 0xe8, 0x97, 0x3b, 0x46, 0xfc, 0x5b, 0xbd,
  0xcb, 0x95, 0xb2, 0xbd, 0x06, 0xba, 0x31, 0xbe, 0x6e, 0x60, 0x31, 0xbe,
  0x5c, 0x0e, 0x57, 0xbd, 0xab, 0xf5, 0x35, 0xbd, 0x29, 0xd7, 0x9d, 0xbc,
  0xda, 0xce, 0x8e, 0x3a, 0x2f, 0xb4, 0x5b, 0x3a, 0x48, 0x42, 0x97, 0xbd,
  0x60, 0xd6, 0x6c, 0xba, 0xef, 0x71, 0x2d, 0xbd, 0x67, 0x6c, 0x47, 0xbd,
  0xb1, 0x49, 0x0e, 0xbd, 0xdc, 0x0d, 0xe3, 0x3d, 0x4f, 0xda, 0x6f, 0xbd,
  0x0e, 0xd1, 0x4f, 0xbd, 0x2a, 0x64, 0xe9, 0xbb, 0x14, 0x98, 0x4b, 0xbd,
  0x70, 0x86, 0x01, 0xbe, 0x98, 0x8b, 0xf5, 0x3c, 0xa3, 0x33, 0x08, 0x3d,
  0x1d, 0x7e, 0x41, 0xbe, 0xa1, 0x71, 0x9a, 0xbb, 0x75, 0x80, 0xe6, 0xbc,
  0x85, 0xcc, 0xad, 0xbd, 0x72, 0x96, 0x08, 0xbd, 0x20, 0xf1, 0x54, 0xbd,
  0x55, 0xdc, 0x3d, 0x3c, 0x5a, 0x46, 0x8a, 0xbe, 0x55, 0x01, 0xf3, 0xbc,
  0x1a, 0x84, 0x5c, 0x3d, 0x4b, 0x3f, 0x17, 0xbe, 0xaa, 0xc6, 0xff, 0xbd,
  0xf8, 0x30, 0x0d, 0x3d, 0x8c, 0xff, 0x69, 0xbb, 0x6e, 0xfb, 0x4b, 0x3d,
  0x0d, 0x02, 0x0b, 0xbd, 0xcd, 0xeb, 0xf1, 0x3c, 0xc1, 0x75, 0x49, 0xbd,
  0x1f, 0x95, 0xd2, 0xbc, 0x1d, 0x2c, 0xa7, 0xbd, 0xe7, 0xe0, 0x28, 0xbc,
  0xb7, 0xb0, 0xbf, 0xbd, 0xba, 0xa1, 0xf8, 0xbd, 0xef, 0x3c, 0x61, 0x3c,
  0x2c, 0x82, 0xd1, 0x3c, 0x3c, 0x82, 0x66, 0x3c, 0x9d, 0x0c, 0xe9, 0xbc,
  0x04, 0x17, 0xae, 0x3d, 0xf1, 0x2c, 0x66, 0x3a, 0x21, 0x36, 0x6a, 0x3d,
  0x98, 0x03, 0xf3, 0xbc, 0x85, 0xb5, 0x01, 0xbe, 0xa6, 0xfd, 0x62, 0xbd,
  0x20, 0x99, 0x23, 0x3e, 0x07, 0xbb, 0x98, 0xbd, 0x24, 0x2b, 0xaa, 0xbb,
  0xb5, 0x14, 0x99, 0xbd, 0xdb, 0xf7, 0xd5, 0xbc, 0x53, 0x79, 0x1c, 0xbe,
  0x9c, 0x43, 0x48, 0xbb, 0xd8, 0x54, 0xb4, 0xbd, 0x28, 0x75, 0xf3, 0xbd,
  0x16, 0x0d, 0x1a, 0x3d, 0x2b, 0x9f, 0x36, 0xbd, 0xe9, 0x6c, 0xb5, 0xbd,
  0xf5, 0x7b, 0xd1, 0xbc, 0x96, 0xa9, 0x08, 0x3c, 0xdb, 0x74, 0x28, 0xbe,
  0x6a, 0xd3, 0xaa, 0xbc, 0x71, 0x32, 0x58, 0xbe, 0x28, 0xb0, 0xf7, 0xbc,
  0x5e, 0xe6, 0xf9, 0xbc, 0xf5, 0x78, 0x05, 0xbd, 0xfe, 0x10, 0x16, 0xbd,
  0xd7, 0x9b, 0x04, 0x3d, 0x8d, 0xef, 0x72, 0xbe, 0x12, 0x96, 0xeb, 0x3f,
  0x55, 0x58, 0x89, 0x3e, 0x84, 0x5e, 0xeb, 0xbd, 0xaf, 0xf1, 0x96, 0x3d,
  0x98, 0xa0, 0x68, 0xbe, 0xa9, 0x7f, 0x08, 0x3e, 0x2d, 0x78, 0xda, 0x3e,
  0x84, 0x7e, 0xad, 0xbd, 0x85, 0x8d, 0x39, 0xbe, 0x22, 0x91, 0x06, 0x3f,
  0xdb, 0x8e, 0x27, 0xbf, 0x6e, 0x29, 0x50, 0x3d, 0x92, 0x5f, 0x84, 0x3d,
  0xbd, 0xbc, 0x36, 0xbe, 0xfb, 0xd7, 0x21, 0xbe, 0x1e, 0x06, 0xf0, 0x3e,
  0xa9, 0x08, 0x57, 0xbd, 0xd6, 0xd6, 0x9b, 0xbd, 0xd7, 0x56, 0xf8, 0xbe,
  0x31, 0x02, 0x80, 0xbe, 0x6d, 0xfd, 0xa9, 0xbe, 0xe1, 0x26, 0xd8, 0x3d,
  0x71, 0x87, 0x12, 0xbf, 0xa0, 0x4c, 0x29, 0x3e, 0xf7, 0x47, 0x57, 0x3e,
  0x00, 0xb1, 0x23, 0xbe, 0x7d, 0x5b, 0x1b, 0xbe, 0x31, 0x0f, 0xad, 0xbe,
  0x48, 0xa4, 0x33, 0xbf, 0x76, 0x81, 0xb3, 0xbe, 0x4f, 0x94, 0xf8, 0x3e,
  0xd7, 0xbf, 0xd0, 0x3e, 0xe0, 0x91, 0x76, 0xbe, 0xec, 0x38, 0xa3, 0x3d,
  0x1e, 0xc8, 0xd2, 0x3d, 0x98, 0xca, 0xbf, 0xbe, 0x3f, 0xaa, 0x82, 0xbd,
  0xcd, 0x64, 0x6e, 0xbe, 0xe0, 0x55, 0x0c, 0x3d, 0x09, 0xdf, 0x12, 0xbd,
  0x84, 0x81, 0x81, 0x3f, 0x77, 0x30, 0xf5, 0x3e, 0xba, 0x60, 0x6d, 0x3c,
  0xb4, 0xfc, 0x11, 0x3e, 0xc2, 0xb1, 0x9b, 0xbd, 0x16, 0x94, 0xbf, 0xbd,
  0xa2, 0x19, 0x3a, 0xbf, 0xee, 0x9b, 0x4a, 0x3f, 0xd6, 0x97, 0xce, 0x3e,
  0x8a, 0x3a, 0x10, 0x3e, 0x7a, 0xd9, 0x06, 0xbe, 0x2e, 0x59, 0x05, 0xbf,
  0xae, 0x22, 0x88, 0xbe, 0xfd, 0x44, 0x80, 0x3f, 0x39, 0x89, 0xd9, 0xbe,
  0xad, 0x8d, 0xf2, 0x3d, 0x5f, 0xc7, 0xc1, 0x3e, 0x72, 0x9b, 0x55, 0xbf,
  0x79, 0x8d, 0x62, 0x3c, 0x0f, 0x8e, 0x3f, 0x3d, 0xa9, 0x02, 0x9f, 0xbe,
  0x36, 0xb8, 0xa1, 0x3e, 0xea, 0x62, 0x25, 0xbd, 0xa1, 0x59, 0x08, 0xbf,
  0x34, 0x92, 0xcc, 0x3d, 0xac, 0x62, 0x54, 0xbe, 0x4f, 0x6c, 0x3a, 0xbc,
  0xe6, 0x8a, 0xe3, 0xbe, 0xd6, 0x20, 0x7d, 0xbe, 0x6e, 0x5a, 0x6c, 0x3f,
  0xee, 0xe8, 0x0f, 0x3d, 0x54, 0x49, 0x31, 0x3e, 0x0d, 0x3d, 0x06, 0x3f,
  0x9c, 0xd7, 0xfc, 0xbd, 0x50, 0x86, 0x54, 0x3d, 0x9d, 0xce, 0x2a, 0x3d,
  0x37, 0x01, 0x90, 0xbe, 0x70, 0x24, 0x8e, 0x3f, 0x5b, 0x6d, 0x72, 0x3d,
  0x81, 0xec, 0x0f, 0x3c, 0x48, 0xe6, 0x6a, 0xbf, 0x9f, 0x79, 0x6f, 0xbf,
  0xc7, 0x5a, 0x7b, 0x3e, 0xdb, 0xb4, 0xa3, 0x3d, 0x85, 0x73, 0x96, 0xbe,
  0xb8, 0xc2, 0x9b, 0xbe, 0x2e, 0x8a, 0x06, 0x3d, 0x17, 0xbc, 0x21, 0xbf,
  0x63, 0xbe, 0x7f, 0x3f, 0x37, 0xd8, 0x0e, 0x3e, 0xd8, 0x32, 0x26, 0x3e,
  0x99, 0x6e, 0x06, 0xbf, 0xb7, 0xb7, 0xee, 0x3e, 0xe3, 0x56, 0x6f, 0xbd,
  0xed, 0xc5, 0xf6, 0x3c, 0xa0, 0x7e, 0x7a, 0xbf, 0x38, 0x34, 0x10, 0x3f,
  0x09, 0x31, 0x31, 0x3d, 0xa0, 0xcf, 0xae, 0xbe, 0x73, 0x4b, 0x1b, 0x3f,
  0x03, 0xc5, 0x84, 0xbf, 0xd5, 0x23, 0x62, 0xbe, 0x27, 0xcf, 0xbb, 0x3d,
  0xbd, 0x2d, 0x82, 0x3e, 0xba, 0x63, 0x25, 0x3d, 0xb0, 0x42, 0xce, 0x3d,
  0x8a, 0xdf, 0x38, 0xbf, 0x19, 0x93, 0xc7, 0xbe, 0x59, 0x27, 0x57, 0xbe,
  0x00, 0xd9, 0x8a, 0x3e, 0xab, 0x88, 0xac, 0x3e, 0x64, 0x76, 0xd2, 0xbd,
  0x6f, 0x2f, 0x2e, 0xbf, 0xaa, 0xc6, 0x17, 0x3d, 0xbb, 0x7b, 0x02, 0xbe,
  0x2c, 0xe5, 0xa7, 0x3d, 0x01, 0xd7, 0x46, 0x3d, 0xaa, 0x7c, 0xd5, 0xbe,
  0x4b, 0x01, 0xf3, 0x3d, 0x48, 0xbd, 0x32, 0xbd, 0x5b, 0x8a, 0x02, 0x3f,
  0x7c, 0x3d, 0xaa, 0xbc, 0xd6, 0xa9, 0x3b, 0xbe, 0xa3, 0x70, 0xb0, 0xbe,
  0x7d, 0xdf, 0x3c, 0xbe, 0x02, 0xbe, 0xaf, 0x3e, 0x0b, 0xc8, 0xf4, 0xbd,
  0xaa, 0x4f, 0x73, 0xbf, 0xf1, 0xc9, 0xf9, 0x3d, 0xdd, 0x34, 0xe6, 0x3c,
  0x7d, 0x9b, 0xbb, 0x3d, 0x1f, 0xf2, 0x9e, 0xbd, 0xf0, 0xc3, 0xa4, 0x3c,
  0xc4, 0xb6, 0x2f, 0x3b, 0xd8, 0xe8, 0xd5, 0x3d, 0xb9, 0xe8, 0x28, 0xbe,
  0xd0, 0xda, 0x70, 0xbe, 0x69, 0x65, 0x86, 0x3e, 0xaa, 0x4f, 0xc8, 0x3e,
  0xad, 0x92, 0x04, 0x3f, 0xeb, 0x76, 0x2d, 0x3c, 0x2f, 0xb6, 0x01, 0x3e,
  0x9f, 0xf3, 0x10, 0x3e, 0x75, 0x9e, 0x37, 0x3d, 0x2a, 0x01, 0x16, 0xbe,
  0x3d, 0xac, 0x94, 0x3d, 0x88, 0x94, 0xfa, 0x3d, 0x93, 0x0d, 0x83, 0xbe,
  0x44, 0xd8, 0xec, 0xbd, 0x08, 0xb9, 0x0d, 0xbe, 0x49, 0xfe, 0x63, 0x3f,
  0xc4, 0x64, 0x12, 0x3d, 0x97, 0x68, 0x0e, 0xbf, 0x0f, 0xaa, 0xaf, 0x3d,
  0xcc, 0x46, 0xde, 0xbd, 0xfe, 0x0f, 0xba, 0xbe, 0x5f, 0x30, 0x82, 0xbe,
  0xc2, 0xd8, 0xd2, 0x3e, 0x3c, 0x9d, 0x15, 0xbf, 0x12, 0x87, 0xce, 0x3e,
  0x3d, 0x60, 0xe3, 0xbd, 0xf8, 0x7b, 0x44, 0xbe, 0x25, 0x31, 0x45, 0xbe,
  0x79, 0x52, 0x53, 0xbe, 0xaa, 0xaa, 0x1a, 0x3d, 0x5c, 0xca, 0x53, 0xbe,
  0xc8, 0x1d, 0x3f, 0x3d, 0xce, 0xc2, 0xee, 0xbe, 0x82, 0xb1, 0xc7, 0xbe,
  0x3c, 0xb3, 0xa4, 0x3f, 0xda, 0xfb, 0x42, 0xbe, 0x82, 0x49, 0xab, 0xbe,
  0x68, 0xd9, 0xd7, 0x3d, 0x0b, 0x3f, 0x68, 0xbf, 0xf1, 0x85, 0xab, 0xbf,
  0x62, 0xfa, 0x5e, 0x3f, 0xe1, 0xfd, 0x75, 0x3d, 0x0d, 0xa9, 0x49, 0xbe,
  0x69, 0xb3, 0x07, 0xbe, 0x86, 0x0f, 0x55, 0x3e, 0x49, 0x63, 0x44, 0x3e,
  0xb9, 0x60, 0xc3, 0x3f, 0xb2, 0x78, 0xb8, 0xbe, 0x93, 0x20, 0xb8, 0xbe,
  0x8e, 0x2e, 0x28, 0x3c, 0x85, 0xb9, 0x26, 0xbf, 0x62, 0xdc, 0x16, 0xbe,
  0x26, 0x56, 0x2d, 0xbe, 0xb6, 0xd7, 0x49, 0xbe, 0x78, 0x92, 0xc2, 0xbb,
  0x0a, 0xa4, 0x0c, 0x3f, 0x30, 0xc1, 0x01, 0xbf, 0x37, 0x67, 0x62, 0xbd,
  0x25, 0xae, 0x4a, 0xbe, 0xcf, 0x1e, 0x9b, 0xbd, 0x4c, 0x1f, 0x69, 0xbf,
  0x18, 0xc8, 0x17, 0xbd, 0x39, 0x84, 0xd9, 0x3e, 0xd6, 0xb8, 0xbc, 0x3d,
  0x80, 0x3d, 0x06, 0xbe, 0x75, 0xfe, 0x6c, 0x3f, 0x1e, 0x6c, 0xd7, 0xbc,
  0xd9, 0xca, 0x9f, 0x3e, 0x32, 0x2a, 0x6d, 0xbe, 0xb3, 0xb9, 0x1a, 0x3e,
  0x1a, 0xf6, 0x69, 0x3f, 0xf8, 0x16, 0x26, 0xbe, 0x4d, 0x3d, 0x0a, 0x3e,
  0x5b, 0xf4, 0x1a, 0xbf, 0xe8, 0x42, 0x9d, 0xbf, 0xfd, 0x68, 0xb9, 0x3f,
  0xcf, 0x0b, 0x0b, 0xbe, 0x82, 0xf5, 0x40, 0xbf, 0xe9, 0x1e, 0x91, 0x3e,
  0x9a, 0x4c, 0x08, 0xbe, 0x0e, 0x9e, 0xf5, 0x3e, 0xac, 0x0c, 0x83, 0x3e,
  0x3d, 0xd1, 0xa0, 0x3d, 0xab, 0x85, 0x92, 0x3e, 0x86, 0x86, 0x9e, 0x3e,
  0xd0, 0x25, 0xb6, 0xbe, 0xf2, 0x56, 0xc6, 0xbe, 0xf1, 0xf1, 0x89, 0x3d,
  0xce, 0x8e, 0x0b, 0xbf, 0xda, 0x3e, 0x7d, 0x3e, 0x44, 0xd6, 0xfe, 0x3e,
  0x85, 0x82, 0xa1, 0x3d, 0x5f, 0x6b, 0x2b, 0x3e, 0xb8, 0x5b, 0x39, 0xbf,
  0x08, 0xda, 0x7d, 0x3d, 0x0e, 0x12, 0xbc, 0x3f, 0x6d, 0x13, 0x93, 0x3e,
  0xd6, 0xe3, 0x57, 0xbc, 0x0e, 0x3c, 0xd4, 0xbf, 0x4f, 0xc1, 0xcf, 0x3e,
  0xa7, 0x03, 0x9f, 0x3e, 0x14, 0x84, 0x83, 0x3d, 0xd4, 0x50, 0x60, 0x3e,
  0xe3, 0x2e, 0x05, 0xbd, 0xca, 0x15, 0xcd, 0x3e, 0x2b, 0xbc, 0x47, 0x3e,
  0x1a, 0x3f, 0x0a, 0xbf, 0x96, 0xcc, 0x8c, 0xbf, 0x39, 0xa5, 0xed, 0xbd,
  0x9a, 0xb2, 0xa1, 0x3e, 0xd3, 0x80, 0xa0, 0x3e, 0x4a, 0xda, 0x06, 0xbe,
  0xc6, 0xc4, 0x77, 0x3f, 0xc1, 0x5a, 0x15, 0xbf, 0x65, 0x4f, 0x02, 0x3d,
  0x81, 0xfb, 0x2a, 0x3e, 0xa2, 0x9a, 0x4e, 0x3d, 0x3b, 0x10, 0xb0, 0xbd,
  0x0a, 0x56, 0x21, 0xbe, 0x32, 0x57, 0x6d, 0xbf, 0x86, 0x46, 0x43, 0xbe,
  0xc1, 0x12, 0xe8, 0xbf, 0x8c, 0x2e, 0x65, 0xbe, 0x69, 0xe0, 0x91, 0xbe,
  0xbe, 0x29, 0x05, 0xbe, 0xc9, 0xb8, 0x2e, 0xbe, 0x80, 0xda, 0x5c, 0xbd,
  0xc1, 0x62, 0x2b, 0xbf, 0x60, 0x15, 0x91, 0xbe, 0x81, 0xe0, 0x49, 0xbe,
  0xde, 0xef, 0xa9, 0x3e, 0xee, 0xac, 0xd5, 0x3f, 0x73, 0xcd, 0x78, 0xbe,
  0x3f, 0x31, 0x8b, 0xbd, 0x26, 0x17, 0x35, 0xbe, 0x8d, 0x24, 0xa4, 0xbe,
  0x81, 0xba, 0xa9, 0xbd, 0x50, 0xa9, 0xf1, 0xbd, 0x6e, 0x98, 0x89, 0xbe,
  0x9e, 0x0f, 0xc3, 0xbe, 0xc2, 0x15, 0x9c, 0xbe, 0x95, 0x29, 0xd5, 0x3e,
  0x0e, 0xd6, 0x6b, 0xbd, 0x4d, 0xf2, 0x5c, 0x3f, 0x12, 0x29, 0x5a, 0x3e,
  0xb5, 0x6d, 0xac, 0x3d, 0xd4, 0x11, 0x80, 0xbe, 0x59, 0x72, 0x3b, 0xbd,
  0xc0, 0x63, 0xc6, 0x3e, 0x4c, 0x31, 0x80, 0x3e, 0xa4, 0x10, 0x18, 0x3f,
  0x94, 0x45, 0x61, 0xbf, 0x27, 0x20, 0xc5, 0x3e, 0x13, 0xac, 0xb0, 0xbe,
  0xe5, 0x36, 0x02, 0xbe, 0xfb, 0x1e, 0xe6, 0x3c, 0xa8, 0xe0, 0x1e, 0xbe,
  0x63, 0x6f, 0xdc, 0xbc, 0x1a, 0xd7, 0x0e, 0x3f, 0xbc, 0x67, 0xfb, 0xbd,
  0xbd, 0x77, 0xf4, 0xbe, 0x97, 0x3f, 0x9d, 0xbf, 0x5d, 0x5a, 0x7c, 0x3e,
  0x46, 0xce, 0x4c, 0xbd, 0x35, 0x8f, 0x1c, 0x3d, 0xa1, 0xac, 0x75, 0xbe,
  0x30, 0x5d, 0xd6, 0xbe, 0x63, 0x22, 0xe9, 0x3d, 0x57, 0xc0, 0xaf, 0xbd,
  0x4e, 0xf7, 0x2f, 0x3e, 0x07, 0x3d, 0x08, 0x3f, 0x78, 0x2f, 0x63, 0x3d,
  0xba, 0xf5, 0x9c, 0xbe, 0xc4, 0xfa, 0xd2, 0xbc, 0xfd, 0xe4, 0x0c, 0xbe,
  0xd0, 0xfb, 0x3d, 0x3f, 0x8b, 0x6d, 0xfd, 0xbe, 0x71, 0xce, 0x0a, 0xbf,
  0xba, 0xbd, 0xef, 0xbd, 0x03, 0x53, 0xdb, 0xbd, 0x65, 0xbe, 0x03, 0xbe,
  0x07, 0xd9, 0x09, 0xbd, 0xd4, 0xae, 0x09, 0xbd, 0x9a, 0xe9, 0x78, 0xbe,
  0x9f, 0xbc, 0xe2, 0x3e, 0x24, 0xf0, 0x97, 0x3d, 0xdf, 0xc2, 0xeb, 0x3d,
  0xab, 0x9c, 0xd7, 0xbd, 0x13, 0x74, 0x7a, 0xbf, 0x56, 0xa9, 0xc2, 0xbe,
  0x88, 0xa2, 0x3d, 0x3f, 0x3f, 0x5a, 0x8d, 0xbe, 0x20, 0x51, 0xa3, 0xbe,
  0xe9, 0x57, 0xc8, 0x3e, 0xe5, 0x38, 0x12, 0x3e, 0x27, 0x00, 0x14, 0x3f,
  0xea, 0x69, 0x00, 0xbe, 0x1e, 0xd4, 0x60, 0xbe, 0x75, 0x64, 0x8b, 0xbf,
  0x60, 0x32, 0x46, 0xbe, 0x69, 0xff, 0x11, 0xbe, 0x91, 0x23, 0xbc, 0x3f,
  0x0f, 0xe7, 0x77, 0xbf, 0x5b, 0x60, 0x5a, 0xbd, 0x3f, 0x1d, 0xd8, 0x3d,
  0x93, 0xbb, 0xf4, 0xbe, 0xa6, 0xd4, 0x23, 0xbf, 0x4c, 0xfa, 0x91, 0x3e,
  0x3d, 0xcc, 0xdd, 0xbe, 0xa4, 0x3a, 0x2f, 0xbf, 0xd8, 0xa1, 0xf2, 0xbe,
  0xf7, 0xda, 0xb9, 0x3e, 0x87, 0xbb, 0xc1, 0xbe, 0x1e, 0xcb, 0x84, 0xbd,
  0xa0, 0x44, 0x12, 0xbe, 0x95, 0xb5, 0xa4, 0x3e, 0x08, 0x68, 0xe7, 0x3f,
  0xd9, 0x7c, 0x97, 0xbf, 0xe3, 0x65, 0x3b, 0xbf, 0x36, 0xc2, 0xe7, 0xbe,
  0xa2, 0x13, 0x87, 0xbd, 0x4d, 0x3f, 0x3f, 0x3f, 0x3e, 0x1f, 0x6b, 0x3e,
  0x82, 0x0e, 0x93, 0x3f, 0x2a, 0x06, 0x67, 0x3d, 0x19, 0x9b, 0x3a, 0xbd,
  0x21, 0x93, 0x65, 0xbf, 0x4f, 0x03, 0x2d, 0xbf, 0x2a, 0x4e, 0xfd, 0xbe,
  0x5f, 0x9a, 0x8c, 0xbe, 0x82, 0xb4, 0x18, 0x3e, 0xcb, 0xa2, 0x19, 0x3f,
  0x88, 0x6a, 0xb2, 0xbe, 0x00, 0x5e, 0x20, 0xbf, 0xa5, 0xec, 0x6c, 0xbf,
  0x97, 0x39, 0xa1, 0xbd, 0x56, 0x66, 0x61, 0xbe, 0x25, 0x15, 0x29, 0xbe,
  0xf0, 0x09, 0xd5, 0xbe, 0x9a, 0x56, 0x6e, 0x3d, 0x3b, 0x29, 0xdc, 0x3f,
  0x19, 0x1e, 0x1a, 0x3f, 0x47, 0x1e, 0x12, 0xbe, 0xf7, 0xc2, 0xb4, 0x3d,
  0x33, 0xf3, 0xad, 0x3f, 0x0c, 0x6a, 0x9b, 0xbc, 0xc2, 0x34, 0x96, 0xbe,
  0x41, 0xd7, 0x6a, 0xbf, 0x89, 0x9e, 0x76, 0x3e, 0xdc, 0x45, 0xe7, 0x3d,
  0x08, 0xd1, 0x87, 0x3d, 0xb2, 0xf1, 0x5e, 0x3e, 0x2e, 0x43, 0x83, 0xbe,
  0x50, 0x64, 0x84, 0x3d, 0xf5, 0x08, 0x43, 0x3d, 0x75, 0x22, 0x21, 0xbf,
  0xa4, 0xe3, 0x91, 0xbe, 0xfe, 0x88, 0x88, 0xbe, 0x39, 0x01, 0x5d, 0x3f,
  0xcc, 0xa7, 0xb2, 0x3e, 0x6c, 0xa1, 0x42, 0xbf, 0x96, 0x2b, 0xb7, 0xbd,
  0xa4, 0xbe, 0x16, 0xbe, 0x26, 0xe9, 0x4d, 0x3e, 0xf9, 0x14, 0x5a, 0x3f,
  0x6b, 0xaf, 0x30, 0xbf, 0x6f, 0x0c, 0xc4, 0xbe, 0x90, 0x8d, 0x56, 0x3e,
  0x5d, 0x70, 0xc5, 0xbe, 0x5c, 0x3a, 0x26, 0xbf, 0x87, 0x16, 0xa2, 0xbe,
  0x34, 0xe1, 0x48, 0xbf, 0x2b, 0x88, 0x35, 0x3f, 0xe7, 0x92, 0xfd, 0xbe,
  0x73, 0x29, 0x6d, 0x3d, 0xa1, 0x82, 0x9f, 0x3e, 0xba, 0xa3, 0xb1, 0x3e,
  0x48, 0x31, 0x73, 0xbf, 0x2f, 0xf0, 0xae, 0xbe, 0xd4, 0x05, 0x44, 0x3f,
  0xff, 0x28, 0x1b, 0xbe, 0xf5, 0x31, 0xd7, 0x3d, 0xc8, 0xf2, 0xc0, 0x3d,
  0xe0, 0xf5, 0xbb, 0xbc, 0xa3, 0xc0, 0x0c, 0xbe, 0xb4, 0x1d, 0xef, 0x3b,
  0x42, 0xc3, 0x88, 0xbe, 0x62, 0x87, 0x99, 0xbd, 0x6e, 0x9a, 0x2d, 0xbe,
  0x06, 0xec, 0xb5, 0x3e, 0xfa, 0xc7, 0x0d, 0x3e, 0x1c, 0x61, 0xab, 0x3d,
  0x5f, 0x8f, 0xec, 0x3d, 0x59, 0x78, 0xf6, 0x3d, 0xbb, 0x72, 0xac, 0xbd,
  0x86, 0xfd, 0xd8, 0xbe, 0x68, 0xe3, 0xf3, 0x3f, 0x54, 0xfe, 0xbe, 0x3e,
  0x82, 0x9f, 0x51, 0x3f, 0x76, 0xd9, 0xcc, 0xbd, 0x3f, 0xf5, 0x46, 0x3e,
  0x0e, 0x36, 0xe4, 0x3b, 0xfc, 0x40, 0xeb, 0xbd, 0xbb, 0x0c, 0x0d, 0x3f,
  0xa6, 0xa6, 0x4e, 0x3e, 0x11, 0xb0, 0x8d, 0x3e, 0xb5, 0x8a, 0x1f, 0xbf,
  0x7d, 0x13, 0x33, 0xbd, 0x6a, 0x13, 0xdf, 0xbb, 0x92, 0xa6, 0x21, 0xbe,
  0xa2, 0x16, 0x80, 0xbe, 0x90, 0xce, 0xb8, 0xbc, 0x28, 0x50, 0xc4, 0x3e,
  0x7d, 0xf2, 0x28, 0x3e, 0x58, 0x98, 0xca, 0xbe, 0xb0, 0x7e, 0xc6, 0xbd,
  0x9c, 0x3e, 0x2a, 0xbf, 0xe2, 0x39, 0xba, 0xbe, 0xa2, 0x9c, 0x0d, 0x40,
  0x54, 0x65, 0xe9, 0x3d, 0xa0, 0xa2, 0x2d, 0xbf, 0xa5, 0xab, 0x00, 0x3f,
  0xe6, 0x17, 0xa0, 0xbd, 0x19, 0x80, 0x43, 0xbf, 0x2f, 0xf7, 0x4c, 0xbd,
  0x30, 0x3a, 0xc1, 0xbd, 0xf3, 0x24, 0x1a, 0xbf, 0x29, 0x6a, 0xcb, 0x3d,
  0xb7, 0x30, 0x48, 0x3e, 0x8a, 0x64, 0x88, 0x3d, 0xff, 0xb5, 0xd6, 0xbf,
  0x5b, 0x63, 0x3d, 0xbf, 0x19, 0x41, 0x1f, 0x3d, 0x33, 0xd2, 0x18, 0xbf,
  0x19, 0x03, 0x8f, 0xbf, 0x53, 0xf4, 0x2c, 0xbe, 0x6b, 0x60, 0x35, 0x3e,
  0xd0, 0x41, 0x82, 0x3e, 0xaa, 0x7d, 0x5e, 0x3e, 0x49, 0xff, 0x06, 0x3f,
  0x16, 0xbe, 0x5c, 0x3e, 0xd5, 0x29, 0xc2, 0xbe, 0x41, 0x8c, 0x57, 0xbe,
  0x76, 0x2e, 0xa5, 0xbd, 0xf9, 0x2b, 0xd6, 0x3e, 0x5c, 0x1f, 0x82, 0xbe,
  0x37, 0xa9, 0xe2, 0xbf, 0x63, 0xf2, 0xaa, 0x3d, 0xec, 0x00, 0x92, 0x3e,
  0xcc, 0x19, 0xcb, 0xbe, 0xb8, 0x6a, 0xae, 0x3d, 0xdd, 0xe0, 0x9f, 0x3f,
  0xda, 0x59, 0x9a, 0xbd, 0xc1, 0x75, 0x2d, 0x3e, 0x7b, 0xfd, 0x4f, 0x3f,
  0x18, 0xee, 0x93, 0x3e, 0xda, 0xaa, 0x4b, 0x3e, 0x36, 0xbf, 0x10, 0xbc,
  0x06, 0x43, 0x26, 0x3f, 0xf4, 0x53, 0x31, 0xbe, 0xc7, 0xaa, 0xa2, 0x3e,
  0x28, 0xc8, 0x51, 0x3e, 0x56, 0x28, 0xde, 0xbe, 0x23, 0x28, 0xce, 0x3f,
  0xfe, 0x33, 0x09, 0x3d, 0xcf, 0x9e, 0x2d, 0x3e, 0x1a, 0xee, 0xb2, 0x3e,
  0xb5, 0xf9, 0xce, 0xbe, 0x13, 0xfc, 0x95, 0x3e, 0xab, 0x33, 0xa0, 0xbe,
  0xca, 0x6e, 0x62, 0x3d, 0xff, 0x98, 0x2e, 0xbf, 0x5f, 0x4f, 0x0d, 0x3c,
  0xd3, 0x30, 0xf2, 0x3d, 0xb2, 0x6e, 0xed, 0x3e, 0x59, 0x3f, 0xd6, 0xbe,
  0x92, 0x78, 0xf9, 0x3c, 0x53, 0x38, 0x8b, 0xbd, 0xd3, 0xf2, 0x50, 0xbd,
  0xa7, 0x7b, 0xcd, 0x3c, 0x8a, 0x3a, 0x0f, 0xbc, 0x92, 0xe3, 0x30, 0xbc,
  0x76, 0xa9, 0xe8, 0x3c, 0x3d, 0x4d, 0x69, 0x3e, 0x7e, 0x49, 0x37, 0xbe,
  0xbe, 0x71, 0x07, 0x3d, 0x80, 0x53, 0x20, 0x3f, 0xc8, 0x2f, 0x91, 0xbc,
  0xe4, 0x50, 0x5b, 0xbc, 0xf7, 0x13, 0xe4, 0x3d, 0xaa, 0x05, 0xdd, 0xbc,
  0x08, 0x58, 0xc7, 0x3b, 0x19, 0x1d, 0x5c, 0xbd, 0xb9, 0x19, 0x23, 0xbe,
  0x64, 0x58, 0x7f, 0xbf, 0x4b, 0xd1, 0x01, 0x3f, 0x96, 0xa4, 0xd3, 0xbc,
  0x8e, 0xca, 0xf5, 0x3d, 0x8b, 0x5e, 0x83, 0xbd, 0xf9, 0x2a, 0x67, 0xbc,
  0x69, 0x8f, 0x4f, 0x3c, 0x5e, 0x6d, 0x41, 0x3c, 0x63, 0xbc, 0xbb, 0xbc,
  0x20, 0x59, 0x0c, 0xbc, 0x9a, 0xe8, 0xc5, 0x3c, 0xe8, 0x6f, 0x41, 0x3d,
  0x41, 0x7c, 0x69, 0x3c, 0x3d, 0x0f, 0x21, 0xbc, 0xfe, 0x89, 0x93, 0x3d,
  0x45, 0xc8, 0x85, 0xbc, 0x5e, 0x46, 0x21, 0xbd, 0x11, 0x87, 0x00, 0xbe,
  0x7e, 0xb8, 0x9e, 0xbc, 0xce, 0xc6, 0xd5, 0xbc, 0x8f, 0xd5, 0x17, 0xbf,
  0x07, 0xa0, 0x9a, 0xbe, 0x00, 0xf4, 0xd3, 0x3c, 0x90, 0xe7, 0xc4, 0xbd,
  0xae, 0x16, 0x33, 0x3d, 0x5f, 0xfa, 0xed, 0xbe, 0xb9, 0xb3, 0x04, 0x3e,
  0xcc, 0xba, 0xbb, 0xbb, 0xd1, 0x43, 0x8b, 0x3e, 0x20, 0xae, 0x0e, 0xbf,
  0x96, 0x48, 0xd3, 0xbe, 0xfa, 0x90, 0xf3, 0x3e, 0x0d, 0x5e, 0x3b, 0x3e,
  0xcb, 0x2e, 0xb4, 0xba, 0x82, 0xab, 0x88, 0x3c, 0xa3, 0x5b, 0x9e, 0x3c,
  0x07, 0xa9, 0xc6, 0xbd, 0x7d, 0xfc, 0xff, 0xbe, 0x68, 0x70, 0x04, 0xbf,
  0x5b, 0x82, 0x0d, 0xbf, 0x11, 0xef, 0x21, 0x3c, 0x40, 0x11, 0x7f, 0x3c,
  0xff, 0x99, 0x6f, 0xba, 0x83, 0xad, 0x36, 0xba, 0xf1, 0x0f, 0x2f, 0x3c,
  0xf6, 0xe2, 0xff, 0x3e, 0x38, 0x4b, 0x26, 0xbf, 0x86, 0xb1, 0xfc, 0xbd,
  0x9a, 0xb8, 0xda, 0x3d, 0x62, 0x63, 0xe2, 0x3c, 0x97, 0x20, 0x25, 0xbc,
  0xef, 0x07, 0x69, 0xbe, 0xac, 0x23, 0x1c, 0x3d, 0xfd, 0xc9, 0x0a, 0xbf,
